node {
  name: "x"
  op: "Placeholder"
  attr {
    key: "dtype"
    value {
      type: DT_FLOAT
    }
  }
  attr {
    key: "shape"
    value {
      shape {
        dim {
          size: -1
        }
        dim {
          size: 224
        }
        dim {
          size: 224
        }
        dim {
          size: 3
        }
      }
    }
  }
}
node {
  name: "sequential/conv2d/Conv2D/ReadVariableOp/resource"
  op: "Const"
  attr {
    key: "dtype"
    value {
      type: DT_FLOAT
    }
  }
  attr {
    key: "value"
    value {
      tensor {
        dtype: DT_FLOAT
        tensor_shape {
          dim {
            size: 3
          }
          dim {
            size: 3
          }
          dim {
            size: 3
          }
          dim {
            size: 4
          }
        }
        tensor_content: "v\323\233?\373=9>\024\003\357?:\254\333=T\367\310;\022\317}\276\2745\327\277\"\322\362\275t\324\026\2776\277i:\376\035\204\277\014\365\363\275\216R\230?\206V\'\276\024\007\327?\243\255\360\274\251\274\225>Qt\207\275+\262\351\277\342\031|>8\307\242\276\0052:\2751<\233\277\301\257\256=\"\335\312?6\312z>V?\005@V{\014>k\247\002?\360a=\276\371\372\246\277\215\330\277<\321\206\277\276n\2657>\347B\223\277Q\262\013\275_\365\326?\010+\026>?\362\324?\205\016\236\276\311\323\024?>B\322=\032y\246\277\305`\247\276\274\033\203\276\200/ >\024\303\327\277\261&\257\276\005\202\300?FV\242\276\337\026\313?\244vy>i\350#?)BJ=2\267\305\2773P\033\276\235\217\273\276K\267N>y\375\360\277\364\021\203\276\206=\267?\375\247\245\276\344B\337?5\003\234=\347r\337>\2035\200\276R\265\326\277\251\202\250=N\025e\276\332\233X>c\216\330\277s\'\222\276G\213\305?\336\255j>\316\223\r@_b\203<=\276\301>\372\3063\276\345\233\257\277\340)5\274?v\266\276\213M\270;\021$h\277\374\232?>\224\007\224?\025\260\372\274\\\217\357?\026\234\222\276`\024\231>\265j\262\276\017I\240\277\244\234\321\2753,\277\276\322\'*>M}\213\277~%M\276\235\223\273?\215cj\276eU\330?=\277$\276\t\252\201>\254:\031\276\377\247\212\277\234w\004>(\375\237\276\024\337\332=\034\316\212\277\347\313,\274"
      }
    }
  }
}
node {
  name: "sequential/conv2d/Conv2D/ReadVariableOp"
  op: "Identity"
  input: "sequential/conv2d/Conv2D/ReadVariableOp/resource"
  attr {
    key: "T"
    value {
      type: DT_FLOAT
    }
  }
}
node {
  name: "sequential/conv2d/Conv2D"
  op: "Conv2D"
  input: "x"
  input: "sequential/conv2d/Conv2D/ReadVariableOp"
  attr {
    key: "T"
    value {
      type: DT_FLOAT
    }
  }
  attr {
    key: "data_format"
    value {
      s: "NHWC"
    }
  }
  attr {
    key: "dilations"
    value {
      list {
        i: 1
        i: 1
        i: 1
        i: 1
      }
    }
  }
  attr {
    key: "explicit_paddings"
    value {
      list {
      }
    }
  }
  attr {
    key: "padding"
    value {
      s: "SAME"
    }
  }
  attr {
    key: "strides"
    value {
      list {
        i: 1
        i: 1
        i: 1
        i: 1
      }
    }
  }
  attr {
    key: "use_cudnn_on_gpu"
    value {
      b: true
    }
  }
}
node {
  name: "sequential/conv2d/BiasAdd/ReadVariableOp/resource"
  op: "Const"
  attr {
    key: "dtype"
    value {
      type: DT_FLOAT
    }
  }
  attr {
    key: "value"
    value {
      tensor {
        dtype: DT_FLOAT
        tensor_shape {
          dim {
            size: 4
          }
        }
        tensor_content: "\211\301}<\177\276u\275\017v\016\274\223\341u\275"
      }
    }
  }
}
node {
  name: "sequential/conv2d/BiasAdd/ReadVariableOp"
  op: "Identity"
  input: "sequential/conv2d/BiasAdd/ReadVariableOp/resource"
  attr {
    key: "T"
    value {
      type: DT_FLOAT
    }
  }
}
node {
  name: "sequential/conv2d/BiasAdd"
  op: "BiasAdd"
  input: "sequential/conv2d/Conv2D"
  input: "sequential/conv2d/BiasAdd/ReadVariableOp"
  attr {
    key: "T"
    value {
      type: DT_FLOAT
    }
  }
  attr {
    key: "data_format"
    value {
      s: "NHWC"
    }
  }
}
node {
  name: "sequential/conv2d/Relu"
  op: "Relu"
  input: "sequential/conv2d/BiasAdd"
  attr {
    key: "T"
    value {
      type: DT_FLOAT
    }
  }
}
node {
  name: "Func/sequential/module_wrapper/PartitionedCall/input/_0"
  op: "Identity"
  input: "sequential/conv2d/Relu"
  attr {
    key: "T"
    value {
      type: DT_FLOAT
    }
  }
}
node {
  name: "Func/sequential/module_wrapper/PartitionedCall/PartitionedCall/input/_22"
  op: "Identity"
  input: "Func/sequential/module_wrapper/PartitionedCall/input/_0"
  attr {
    key: "T"
    value {
      type: DT_FLOAT
    }
  }
}
node {
  name: "sequential/module_wrapper/PartitionedCall/PartitionedCall/average_pooling2d/AvgPool"
  op: "AvgPool"
  input: "Func/sequential/module_wrapper/PartitionedCall/PartitionedCall/input/_22"
  attr {
    key: "T"
    value {
      type: DT_FLOAT
    }
  }
  attr {
    key: "data_format"
    value {
      s: "NHWC"
    }
  }
  attr {
    key: "ksize"
    value {
      list {
        i: 1
        i: 4
        i: 4
        i: 1
      }
    }
  }
  attr {
    key: "padding"
    value {
      s: "VALID"
    }
  }
  attr {
    key: "strides"
    value {
      list {
        i: 1
        i: 4
        i: 4
        i: 1
      }
    }
  }
}
node {
  name: "sequential/module_wrapper/PartitionedCall/PartitionedCall/Identity"
  op: "Identity"
  input: "sequential/module_wrapper/PartitionedCall/PartitionedCall/average_pooling2d/AvgPool"
  attr {
    key: "T"
    value {
      type: DT_FLOAT
    }
  }
}
node {
  name: "Func/sequential/module_wrapper/PartitionedCall/PartitionedCall/output/_23"
  op: "Identity"
  input: "sequential/module_wrapper/PartitionedCall/PartitionedCall/Identity"
  attr {
    key: "T"
    value {
      type: DT_FLOAT
    }
  }
}
node {
  name: "sequential/module_wrapper/PartitionedCall/Identity"
  op: "Identity"
  input: "Func/sequential/module_wrapper/PartitionedCall/PartitionedCall/output/_23"
  attr {
    key: "T"
    value {
      type: DT_FLOAT
    }
  }
}
node {
  name: "Func/sequential/module_wrapper/PartitionedCall/output/_1"
  op: "Identity"
  input: "sequential/module_wrapper/PartitionedCall/Identity"
  attr {
    key: "T"
    value {
      type: DT_FLOAT
    }
  }
}
node {
  name: "Func/sequential/module_wrapper_1/PartitionedCall/input/_2"
  op: "Identity"
  input: "Func/sequential/module_wrapper/PartitionedCall/output/_1"
  attr {
    key: "T"
    value {
      type: DT_FLOAT
    }
  }
}
node {
  name: "Func/sequential/module_wrapper_1/PartitionedCall/PartitionedCall/input/_24"
  op: "Identity"
  input: "Func/sequential/module_wrapper_1/PartitionedCall/input/_2"
  attr {
    key: "T"
    value {
      type: DT_FLOAT
    }
  }
}
node {
  name: "sequential/module_wrapper_1/PartitionedCall/PartitionedCall/dropout/Identity"
  op: "Identity"
  input: "Func/sequential/module_wrapper_1/PartitionedCall/PartitionedCall/input/_24"
  attr {
    key: "T"
    value {
      type: DT_FLOAT
    }
  }
}
node {
  name: "sequential/module_wrapper_1/PartitionedCall/PartitionedCall/Identity"
  op: "Identity"
  input: "sequential/module_wrapper_1/PartitionedCall/PartitionedCall/dropout/Identity"
  attr {
    key: "T"
    value {
      type: DT_FLOAT
    }
  }
}
node {
  name: "Func/sequential/module_wrapper_1/PartitionedCall/PartitionedCall/output/_25"
  op: "Identity"
  input: "sequential/module_wrapper_1/PartitionedCall/PartitionedCall/Identity"
  attr {
    key: "T"
    value {
      type: DT_FLOAT
    }
  }
}
node {
  name: "sequential/module_wrapper_1/PartitionedCall/Identity"
  op: "Identity"
  input: "Func/sequential/module_wrapper_1/PartitionedCall/PartitionedCall/output/_25"
  attr {
    key: "T"
    value {
      type: DT_FLOAT
    }
  }
}
node {
  name: "Func/sequential/module_wrapper_1/PartitionedCall/output/_3"
  op: "Identity"
  input: "sequential/module_wrapper_1/PartitionedCall/Identity"
  attr {
    key: "T"
    value {
      type: DT_FLOAT
    }
  }
}
node {
  name: "sequential/conv2d_1/Conv2D/ReadVariableOp/resource"
  op: "Const"
  attr {
    key: "dtype"
    value {
      type: DT_FLOAT
    }
  }
  attr {
    key: "value"
    value {
      tensor {
        dtype: DT_FLOAT
        tensor_shape {
          dim {
            size: 5
          }
          dim {
            size: 5
          }
          dim {
            size: 4
          }
          dim {
            size: 4
          }
        }
        tensor_content: "\360\202\352\274\007\361w>\305\203\336<5\214\351=\346\303\241\275\240\273\331=:\323\206\275\344\240\014>\003y\373<\336\0215>\225\276-<\352g\036\276:<\"\2760<v\273\244\0170\276\rr\325\275\'\302\237\276\363X\373>\301t\017\275\352[\300=\036\351\311\275<|a\275XS=\276\007\367\211\275\217_Z=\001\376;>\212C\353\275V3:\275\362\2038>\316+\010>\300\024!\276AU\030\276\352EI\276tS\t?\014\320\347=\271y\026\276\261;2=\222\244*>5j\306\275\375\317`\275\236k==\237\304\263>KI@\276\3637\'\275\232\252H\275\2511I=\226k!\275\364\020+\275\273p\263\275q\261\356>\201\305\007\276\274]\377=~\035\301\275\242\340\200=0\r/\276Q\206\306\275\033\204\315\275\275|\354>\007T\243\275\356\363\202\276\2109\367<6Y\317=\305)\241\275Vb\006\276\177\265]\275rJ9>GD,\276 \320T<\255\272\013>`\267\335\275p\225\233=JG==\235\225\314\275kw\375>\360\240\303\275\037\373\006=]Lo\275\310.\256=\365\351\021>^\352\007\276\306f\227\276\020_\014=Mgf\275\252L\202\275\252\365\271\275\350\310\326=\300\351\234=\020\303\003\276\232\260\240=J\203\346>${\321\275\037\007s=\036z\314\275\214\277\361\275\210Z\"\275z\324\314\275s\377\232\276\336-\253>3`w=\007\272\247\274\272\342H<\255\3626\275\353:\020\275\272gk78\252!\275o\t\000?D\212E\276\207\277\021=\253\234\207<\247\244N>\327\223\r>\303|s\274\"\031j\276\002\367\020?\205\301\203<|=T\275\334\312\241\274\351B\317\275\310}\207\275\331\204\023>\205\2667\276{\254\272>\243\357\263=\233\334\014\276\'\345W=\316\341\265=\'\217\037>\361\010\321\275\\\026\200\276\305\356\212>\021S\377<7\223\267\2752r(>\210\375\261\27547\351=b\310\031\276\2041R=\327(\357>\352a\245;w\354\250=\215x\343\275\330\2064=_4\374=\346\345\003=\251\255\262\275\351\247\002>\370\207Y\275\211\017I\276\270\310v\275\251\035\257=Cv\356=\305t\247\275\022G&\276\032\025\320>e<\346=j\333\t\274\270\225\014\275s\024\033>\207C\036>\260\214H\274\243\310\031\276\0176\002\2765\307L\2767\017!\276;\022\207\274\325\200\336=\202\354\036\276\t\004&>E0e\275\320\027\003?\022\234\004=\345\272\254\275:\214\031>\301\222O\275:\235_=4\315<>\332\006(\276F{\216>R=\365\275M\274;\276\035h@>\352\221\001>\334u\027\276\330\335.=3\275,<*33?\314\321\303\275\256\271\225\273)o\232=\030\220\253=U]\357\273K\250.\275\304\351\325\274\321D\312>\322\302\230\276&\360>\276\024\307\272=\234\311h>\022\336\035\276\274\336\004>\314>\365=\220\213\t?\247\314\021\274#\2052<\2630\001\276&]e;K\033\330\275S\352/>\36248\276%\304\324<![\016\276\325\001F\276\216\273\t>XF\023\275@\020\216<0J\035\273\243\200\010\275\233+*?\345\224\324\275k\331\237\275\304\003\375<+{\365<%\346\027\276\032\003\021\276\337DQ\275\264kz\276\353=<\275%vB\276_9\007>P\267\320\274v\2323\275c\332\n>\007\326\341=H*\035?\200\000&=\003T\362\275-\347\347\275\370\220.=\314\222(\276p\313B>\271\315^\276Y\210\330\276\207\375\215\275\223x$=\274\377\236\275\254\2633>\206R\263\275\255a\375\275\363#&\276\330\r\373>e\356\006>\335$\201\275\202\247\374\274c\361\245\275\020;\335<&\"p=\375\273B\275D\275\341\273\217D\315\275\266\216\357\275\247\026\014\276\301&\303\274\242T\203=\322G\346<\231\320l\274\332\224C?Uq8>_\232,\275\246A\325;x\240\270\275\354\206\006\275\007\370\t>\315\342\226\276\014\226\003>\262I\236<\346Vw=\343\267\010>2\343\315=:\014n=\374\273p=.\342\262<j\3023?$\335\003\276@\227j\276\246\260\025\276\0311\010\275\223\031K\275bu\350<\024\306_\276\234\026\266\276\336\337N\276\34482\276\273\356\251<\327\217d=O\370\036\276\273\365\315\275bNL\273\204\335\007?\275\376$\276H(i\276_\317\316\275\335\274\027>_@\243\274\323\\\034>\021\362\270\276\221\007\340\276\331\341\216\276S\317-\274\000S\270=Ml\014>\010\336\016\273\002\016?>w\272\212=\301L\034?\257\322\316=\207\210?\276I>,\276\246\260\202=KC\310\274\200r?\275\354\036\307\275iJ\014\2770\256 \275CBO\276\330\306\230\275\246\021(>\036\234\254\275&\021;>\032\251s\275\212\0356?\000\3672>\246gc\276\340\220\201=6\177\354\275\210\007<\275\210&\264\275\222q1\276\361\200\210\276/\304\212\276\335\210\311=T<\265=r\244/=\337\3723\276\353g\007\276\364\251p\275\367\217E?\301i\004\276\336\320\267\274\336\000\021\276\265\236\313<\256L\261=\340Z\377<^\223\226\276>U\373\275\256o\253\2767\n\010>\300\356i\275dG\361<\354AG\275\201u\002\276>Q\211\275L\362V?\004\320\024>\346|#\276].j=\336ov<\005\237\273\275\366\345\r\276\032/\263\276\237\257\016\277\306\306\253\276=b\325\275?\356\207\275x\343\255=\304^\337\275\204\334\377\274\235\177\025>\332-:?l\355\024\276\256\341K\275N\254M\275\304O\331\275\014\231!>%\017\235=O\207\221\275\2731\324\276W#7\276\203\026\013<rI\004>p\321z=\030?\005\276P\352\264=\322\3278\276\001\351)?\361\315\">\301z\255:\316\251G=\321\236\227=\203+\347<\252\206\017>"
      }
    }
  }
}
node {
  name: "sequential/conv2d_1/Conv2D/ReadVariableOp"
  op: "Identity"
  input: "sequential/conv2d_1/Conv2D/ReadVariableOp/resource"
  attr {
    key: "T"
    value {
      type: DT_FLOAT
    }
  }
}
node {
  name: "sequential/conv2d_1/Conv2D"
  op: "Conv2D"
  input: "Func/sequential/module_wrapper_1/PartitionedCall/output/_3"
  input: "sequential/conv2d_1/Conv2D/ReadVariableOp"
  attr {
    key: "T"
    value {
      type: DT_FLOAT
    }
  }
  attr {
    key: "data_format"
    value {
      s: "NHWC"
    }
  }
  attr {
    key: "dilations"
    value {
      list {
        i: 1
        i: 1
        i: 1
        i: 1
      }
    }
  }
  attr {
    key: "explicit_paddings"
    value {
      list {
      }
    }
  }
  attr {
    key: "padding"
    value {
      s: "SAME"
    }
  }
  attr {
    key: "strides"
    value {
      list {
        i: 1
        i: 1
        i: 1
        i: 1
      }
    }
  }
  attr {
    key: "use_cudnn_on_gpu"
    value {
      b: true
    }
  }
}
node {
  name: "sequential/conv2d_1/BiasAdd/ReadVariableOp/resource"
  op: "Const"
  attr {
    key: "dtype"
    value {
      type: DT_FLOAT
    }
  }
  attr {
    key: "value"
    value {
      tensor {
        dtype: DT_FLOAT
        tensor_shape {
          dim {
            size: 4
          }
        }
        tensor_content: "!9^\276\352\3665\275\261\260\032\275/\230\246\274"
      }
    }
  }
}
node {
  name: "sequential/conv2d_1/BiasAdd/ReadVariableOp"
  op: "Identity"
  input: "sequential/conv2d_1/BiasAdd/ReadVariableOp/resource"
  attr {
    key: "T"
    value {
      type: DT_FLOAT
    }
  }
}
node {
  name: "sequential/conv2d_1/BiasAdd"
  op: "BiasAdd"
  input: "sequential/conv2d_1/Conv2D"
  input: "sequential/conv2d_1/BiasAdd/ReadVariableOp"
  attr {
    key: "T"
    value {
      type: DT_FLOAT
    }
  }
  attr {
    key: "data_format"
    value {
      s: "NHWC"
    }
  }
}
node {
  name: "sequential/conv2d_1/Relu"
  op: "Relu"
  input: "sequential/conv2d_1/BiasAdd"
  attr {
    key: "T"
    value {
      type: DT_FLOAT
    }
  }
}
node {
  name: "Func/sequential/module_wrapper_2/PartitionedCall/input/_4"
  op: "Identity"
  input: "sequential/conv2d_1/Relu"
  attr {
    key: "T"
    value {
      type: DT_FLOAT
    }
  }
}
node {
  name: "Func/sequential/module_wrapper_2/PartitionedCall/PartitionedCall/input/_26"
  op: "Identity"
  input: "Func/sequential/module_wrapper_2/PartitionedCall/input/_4"
  attr {
    key: "T"
    value {
      type: DT_FLOAT
    }
  }
}
node {
  name: "sequential/module_wrapper_2/PartitionedCall/PartitionedCall/average_pooling2d_1/AvgPool"
  op: "AvgPool"
  input: "Func/sequential/module_wrapper_2/PartitionedCall/PartitionedCall/input/_26"
  attr {
    key: "T"
    value {
      type: DT_FLOAT
    }
  }
  attr {
    key: "data_format"
    value {
      s: "NHWC"
    }
  }
  attr {
    key: "ksize"
    value {
      list {
        i: 1
        i: 4
        i: 4
        i: 1
      }
    }
  }
  attr {
    key: "padding"
    value {
      s: "VALID"
    }
  }
  attr {
    key: "strides"
    value {
      list {
        i: 1
        i: 4
        i: 4
        i: 1
      }
    }
  }
}
node {
  name: "sequential/module_wrapper_2/PartitionedCall/PartitionedCall/Identity"
  op: "Identity"
  input: "sequential/module_wrapper_2/PartitionedCall/PartitionedCall/average_pooling2d_1/AvgPool"
  attr {
    key: "T"
    value {
      type: DT_FLOAT
    }
  }
}
node {
  name: "Func/sequential/module_wrapper_2/PartitionedCall/PartitionedCall/output/_27"
  op: "Identity"
  input: "sequential/module_wrapper_2/PartitionedCall/PartitionedCall/Identity"
  attr {
    key: "T"
    value {
      type: DT_FLOAT
    }
  }
}
node {
  name: "sequential/module_wrapper_2/PartitionedCall/Identity"
  op: "Identity"
  input: "Func/sequential/module_wrapper_2/PartitionedCall/PartitionedCall/output/_27"
  attr {
    key: "T"
    value {
      type: DT_FLOAT
    }
  }
}
node {
  name: "Func/sequential/module_wrapper_2/PartitionedCall/output/_5"
  op: "Identity"
  input: "sequential/module_wrapper_2/PartitionedCall/Identity"
  attr {
    key: "T"
    value {
      type: DT_FLOAT
    }
  }
}
node {
  name: "sequential/conv2d_2/Conv2D/ReadVariableOp/resource"
  op: "Const"
  attr {
    key: "dtype"
    value {
      type: DT_FLOAT
    }
  }
  attr {
    key: "value"
    value {
      tensor {
        dtype: DT_FLOAT
        tensor_shape {
          dim {
            size: 5
          }
          dim {
            size: 5
          }
          dim {
            size: 4
          }
          dim {
            size: 4
          }
        }
        tensor_content: "\300D<\276\330P-\276\364\371\213<\271\0012\276;\373\341\275MsI>\001\232\250\275Hr\231\275\000\2778\276\231\201\006>q\216\272=\027\205\254\275j\327W\276B\264\263=\253+\347=\221\232\261\275\n\250\334\275\210+\036=\270\263\355=\236\032\004\274\224$\340\275\036%\256=\022\351&>\037\246F>H\272C=x\253\"\276-U\007\276\323\271\002>\031\273\331;f\304$>\035\345\331<\373\332\270=\034\343\326=$~\215=\\<m\273A\305\\\275i\033\224\276\266\371\001\275\245@\227>\020\327\276>\345\325\201=z~\215=\247xJ>8\334#\276\215\251\327\274UI\005\275\306\034\205\276\260\035\032=\333\270k\275l\205A\276\206\260\341\275\232\225\242\274\252d\036\275\323\264\013>\230\256M\276\331\3235>\245Sa=\335o[\275\307C\031>D\353\256=\253\301\202\275:\317\321=\376\242\232\275\'\036\335\275\266?\360=hZ\362\275V\203B\275(\006X\276\216\tL>\377|\323=$Dd\277N!\353=\360%\320=\200\221w\275U)_\2757\342\276=Nr\301\2755u\265<\266\225V\275\352<\005>\353f\223=>7X=d|\312<5\316\222\275\221\3555\275c\355\177>\232\354/>\256\260\177=\231\250\326\275\267\261\200=\222\017\362=G\217f=\337\356B\275\036\036\361=t~\312\274h!Y\275\351\205\014<^\363\366\275\313\260\004=b\206x\276\307\207 \276\273\202\231>\330|5?>\263%>r\377_\274|\331\010>\234\233\253<\300\341?\274\370H\035\275\220\205\201=_\346\241\275\030\027\020\276\033\366C\276Z^k=L\017Z\275uVw\276:\260\003\276q\330\215>\273\nA?\365\272\n?\217{(\275oB\360=\315i_<v\376\027=L\350\264\275v\233z\275\266\327\221\276p\222\323\275\010\362\210=r\221\005>\234\256\234\275\245\247W\276W0N=\350\246<>\312\205\377>\344\244\354>\nN\035\275]\315#\276\237P\020>\354k\364\275\005\352\312\275~Y\222=x\266V\276\025D\223=\310\231k\275\376x$=\272C\213\275\333\335\206\275\325\356\266>i\362\272=h\200\034\277\262\234\205>X\2277\276\217\246-\276c.+>o\340?\276T2=\275/e\262\275\267\310\000\275\247\267\217<\227Z\246\275\255\3372\276\264\262e\275\375\334t\276>Yh\276\305\t\254>S\265\353>\330\370\242<\030*A=8\005\265=\211GL>\234\006\304\275`5\302=\036\257\'>\233\204\211\276?\327\032\274@\270\037\275\347(\273\275\001\007!>10\036\276\000\r\264\276\360\343\373>\303~\205?e\\\250>\370\204\314\275t\352\337=\356\342R>\332\276\364\274\0350\213=\033?\277=\243M\246\276\206\211\370=\3127\014\276\353%a\273k\345\200>A\257\325\275\026\233N\276g\325\025?\006\243\244?o&#?28\362\275r\r\307=\212\t\325>\032_\376\275t\371\316=\214*\375=1\257\202\276\201\313\226=z\013O\2766\266\207\275\267\256\023>\311\306\r\276\014\177\242=%\037\315=\252\266p?\273\314\020?\273\335\207=9Cx\275\334\222\231>\333\202\346\275\235\300\264=4S\037=\035\030\261\274\260p4>\024#\036\276% \032;X(\217>\363K\r\276I\250\211>\253Q~=\201\312\243\275\347\001\302>\323\323\344=\222\323\344\275\3467m=\316\250S=\265\311m\275\005\237\343=\370[\325\276h\264\230=\372\273\364=x\333\241\275r\247>>9/\242\276:\326j=\242\230@<\354\266\025\271<\237\317=Y\373\206=\001\007\220\275\204\222\232>\234\254\032=\254\330\276\275\3166:>?\217/>\303\272U\275\020\177\030\276\0048\376\275Gy}\275/\014\242\275L\363\025\276\022\263\336>~\373\306=\370\027\224>\030@4=\277\243\327\275U\354\037?U\003\307=\010}\207=\263+)<\247\361\004\276\304\354\207\275\264\007K\275~\313\272=\257\311\023>^\315\350\275\r\254\207\276\357\300\236>q\314\000?\036\311\363>\221\031\007>\214K\345\275\241\364b?^Y\330\275}$\201<\367\0071>Y\033\312\276\201KD\274i\303\005\276<\034\235\275\030\230\240=%\310\340\275\212\350\237\275\330\303h=\251\260w=\260\373\312>\264\224\013\276\233\013\367\274\266YB?\3617\201\275k\365@\275\245N,\275\247I}\275\306\2075>\211U\\\275\034,\023\276\306X\207\273\033\005l\276k \032?\366\234~>\233M\266\276\327\234[\275\234pQ\275\370m\034>\\\261\345=\240\353k=!L\201\275/\340\225\275\311\r_\276}\223\261\275\014\243\035\275\231}\222=8\357\037\275\365\320V\276+\201\321=\357\203z>\006\362\000\277\321\307:=\333\240\007\276MM*\275g\263\233>\323\004l=\001 \031\276\356/X=\026\260\022?(\341\333<\317\020\377\275\233\226#\275\314\227\306\275\301N@\276c~U\276\267\335\255>b\326\021\277\271/\277\273\347\001\343=\375\006 >\370r\241=\021\237\274=D\203F\275}\277\256\275D\340+?nk\337=\317\311\372=71&\276\007\377a\276\255\326\203<\337\262e\276\332Y\247>\223@O\275p\251\215>4r\230\275cm\276=\322\243\t?$\026\026\276.\242A\275\302\331\033\276\370\322\035?H\022\353\274\374\276*\276\253!\"\274\226\346\374\275*`\217\276%\020\206>\217\251N=\330\313\n\277\366Qj\275\216\254\246<5D\316\275\371\004\361>\303\355\023\276\376&{=\353s$\276\300\204A?\270\370\270=\375\035\003>}\301\014>\003 \200\276J\347\330\275\263\346\r?\255\243g\275\227\002<\277L\205\320=\277-{\274\003^\330=\334h\021>\201\332\007\2764\372o=\005\300\335\275\342ge?4M\263\275"
      }
    }
  }
}
node {
  name: "sequential/conv2d_2/Conv2D/ReadVariableOp"
  op: "Identity"
  input: "sequential/conv2d_2/Conv2D/ReadVariableOp/resource"
  attr {
    key: "T"
    value {
      type: DT_FLOAT
    }
  }
}
node {
  name: "sequential/conv2d_2/Conv2D"
  op: "Conv2D"
  input: "Func/sequential/module_wrapper_2/PartitionedCall/output/_5"
  input: "sequential/conv2d_2/Conv2D/ReadVariableOp"
  attr {
    key: "T"
    value {
      type: DT_FLOAT
    }
  }
  attr {
    key: "data_format"
    value {
      s: "NHWC"
    }
  }
  attr {
    key: "dilations"
    value {
      list {
        i: 1
        i: 1
        i: 1
        i: 1
      }
    }
  }
  attr {
    key: "explicit_paddings"
    value {
      list {
      }
    }
  }
  attr {
    key: "padding"
    value {
      s: "SAME"
    }
  }
  attr {
    key: "strides"
    value {
      list {
        i: 1
        i: 1
        i: 1
        i: 1
      }
    }
  }
  attr {
    key: "use_cudnn_on_gpu"
    value {
      b: true
    }
  }
}
node {
  name: "sequential/conv2d_2/BiasAdd/ReadVariableOp/resource"
  op: "Const"
  attr {
    key: "dtype"
    value {
      type: DT_FLOAT
    }
  }
  attr {
    key: "value"
    value {
      tensor {
        dtype: DT_FLOAT
        tensor_shape {
          dim {
            size: 4
          }
        }
        tensor_content: "Mq\377\275\277\243W\276\247\362\361=\227\211\202\275"
      }
    }
  }
}
node {
  name: "sequential/conv2d_2/BiasAdd/ReadVariableOp"
  op: "Identity"
  input: "sequential/conv2d_2/BiasAdd/ReadVariableOp/resource"
  attr {
    key: "T"
    value {
      type: DT_FLOAT
    }
  }
}
node {
  name: "sequential/conv2d_2/BiasAdd"
  op: "BiasAdd"
  input: "sequential/conv2d_2/Conv2D"
  input: "sequential/conv2d_2/BiasAdd/ReadVariableOp"
  attr {
    key: "T"
    value {
      type: DT_FLOAT
    }
  }
  attr {
    key: "data_format"
    value {
      s: "NHWC"
    }
  }
}
node {
  name: "sequential/conv2d_2/Relu"
  op: "Relu"
  input: "sequential/conv2d_2/BiasAdd"
  attr {
    key: "T"
    value {
      type: DT_FLOAT
    }
  }
}
node {
  name: "Func/sequential/module_wrapper_3/PartitionedCall/input/_6"
  op: "Identity"
  input: "sequential/conv2d_2/Relu"
  attr {
    key: "T"
    value {
      type: DT_FLOAT
    }
  }
}
node {
  name: "Func/sequential/module_wrapper_3/PartitionedCall/PartitionedCall/input/_28"
  op: "Identity"
  input: "Func/sequential/module_wrapper_3/PartitionedCall/input/_6"
  attr {
    key: "T"
    value {
      type: DT_FLOAT
    }
  }
}
node {
  name: "sequential/module_wrapper_3/PartitionedCall/PartitionedCall/average_pooling2d_2/AvgPool"
  op: "AvgPool"
  input: "Func/sequential/module_wrapper_3/PartitionedCall/PartitionedCall/input/_28"
  attr {
    key: "T"
    value {
      type: DT_FLOAT
    }
  }
  attr {
    key: "data_format"
    value {
      s: "NHWC"
    }
  }
  attr {
    key: "ksize"
    value {
      list {
        i: 1
        i: 2
        i: 2
        i: 1
      }
    }
  }
  attr {
    key: "padding"
    value {
      s: "VALID"
    }
  }
  attr {
    key: "strides"
    value {
      list {
        i: 1
        i: 2
        i: 2
        i: 1
      }
    }
  }
}
node {
  name: "sequential/module_wrapper_3/PartitionedCall/PartitionedCall/Identity"
  op: "Identity"
  input: "sequential/module_wrapper_3/PartitionedCall/PartitionedCall/average_pooling2d_2/AvgPool"
  attr {
    key: "T"
    value {
      type: DT_FLOAT
    }
  }
}
node {
  name: "Func/sequential/module_wrapper_3/PartitionedCall/PartitionedCall/output/_29"
  op: "Identity"
  input: "sequential/module_wrapper_3/PartitionedCall/PartitionedCall/Identity"
  attr {
    key: "T"
    value {
      type: DT_FLOAT
    }
  }
}
node {
  name: "sequential/module_wrapper_3/PartitionedCall/Identity"
  op: "Identity"
  input: "Func/sequential/module_wrapper_3/PartitionedCall/PartitionedCall/output/_29"
  attr {
    key: "T"
    value {
      type: DT_FLOAT
    }
  }
}
node {
  name: "Func/sequential/module_wrapper_3/PartitionedCall/output/_7"
  op: "Identity"
  input: "sequential/module_wrapper_3/PartitionedCall/Identity"
  attr {
    key: "T"
    value {
      type: DT_FLOAT
    }
  }
}
node {
  name: "Func/sequential/module_wrapper_4/PartitionedCall/input/_8"
  op: "Identity"
  input: "Func/sequential/module_wrapper_3/PartitionedCall/output/_7"
  attr {
    key: "T"
    value {
      type: DT_FLOAT
    }
  }
}
node {
  name: "Func/sequential/module_wrapper_4/PartitionedCall/PartitionedCall/input/_30"
  op: "Identity"
  input: "Func/sequential/module_wrapper_4/PartitionedCall/input/_8"
  attr {
    key: "T"
    value {
      type: DT_FLOAT
    }
  }
}
node {
  name: "sequential/module_wrapper_4/PartitionedCall/PartitionedCall/flatten/Const"
  op: "Const"
  attr {
    key: "dtype"
    value {
      type: DT_INT32
    }
  }
  attr {
    key: "value"
    value {
      tensor {
        dtype: DT_INT32
        tensor_shape {
          dim {
            size: 2
          }
        }
        tensor_content: "\377\377\377\377\304\000\000\000"
      }
    }
  }
}
node {
  name: "sequential/module_wrapper_4/PartitionedCall/PartitionedCall/flatten/Reshape"
  op: "Reshape"
  input: "Func/sequential/module_wrapper_4/PartitionedCall/PartitionedCall/input/_30"
  input: "sequential/module_wrapper_4/PartitionedCall/PartitionedCall/flatten/Const"
  attr {
    key: "T"
    value {
      type: DT_FLOAT
    }
  }
  attr {
    key: "Tshape"
    value {
      type: DT_INT32
    }
  }
}
node {
  name: "sequential/module_wrapper_4/PartitionedCall/PartitionedCall/Identity"
  op: "Identity"
  input: "sequential/module_wrapper_4/PartitionedCall/PartitionedCall/flatten/Reshape"
  attr {
    key: "T"
    value {
      type: DT_FLOAT
    }
  }
}
node {
  name: "Func/sequential/module_wrapper_4/PartitionedCall/PartitionedCall/output/_31"
  op: "Identity"
  input: "sequential/module_wrapper_4/PartitionedCall/PartitionedCall/Identity"
  attr {
    key: "T"
    value {
      type: DT_FLOAT
    }
  }
}
node {
  name: "sequential/module_wrapper_4/PartitionedCall/Identity"
  op: "Identity"
  input: "Func/sequential/module_wrapper_4/PartitionedCall/PartitionedCall/output/_31"
  attr {
    key: "T"
    value {
      type: DT_FLOAT
    }
  }
}
node {
  name: "Func/sequential/module_wrapper_4/PartitionedCall/output/_9"
  op: "Identity"
  input: "sequential/module_wrapper_4/PartitionedCall/Identity"
  attr {
    key: "T"
    value {
      type: DT_FLOAT
    }
  }
}
node {
  name: "Func/sequential/module_wrapper_5/StatefulPartitionedCall/input_control_node/_10"
  op: "NoOp"
  input: "^Func/sequential/module_wrapper_4/PartitionedCall/output/_9"
}
node {
  name: "Func/sequential/module_wrapper_5/StatefulPartitionedCall/input/_11"
  op: "Identity"
  input: "Func/sequential/module_wrapper_4/PartitionedCall/output/_9"
  input: "^Func/sequential/module_wrapper_5/StatefulPartitionedCall/input_control_node/_10"
  attr {
    key: "T"
    value {
      type: DT_FLOAT
    }
  }
}
node {
  name: "Func/sequential/module_wrapper_5/StatefulPartitionedCall/StatefulPartitionedCall/input_control_node/_32"
  op: "NoOp"
  input: "^Func/sequential/module_wrapper_5/StatefulPartitionedCall/input_control_node/_10"
}
node {
  name: "Func/sequential/module_wrapper_5/StatefulPartitionedCall/StatefulPartitionedCall/input/_33"
  op: "Identity"
  input: "Func/sequential/module_wrapper_5/StatefulPartitionedCall/input/_11"
  input: "^Func/sequential/module_wrapper_5/StatefulPartitionedCall/StatefulPartitionedCall/input_control_node/_32"
  attr {
    key: "T"
    value {
      type: DT_FLOAT
    }
  }
}
node {
  name: "sequential/module_wrapper_5/1506"
  op: "Const"
  attr {
    key: "dtype"
    value {
      type: DT_FLOAT
    }
  }
  attr {
    key: "value"
    value {
      tensor {
        dtype: DT_FLOAT
        tensor_shape {
          dim {
            size: 196
          }
          dim {
            size: 32
          }
        }
        tensor_content: "z;Y=\027\311V?p\365\264\275+\203\301=\'\004\204>\226\212\221=\016C\277=\331UG?\t\035\036\274\330O\204\276T\352\207=\037`\t>|\"\201>\005)\342\276\014\253\277=\213[\264\274\3400\236\274X\244\004\276$\027F=L1\370=\360\241\020\276\351\351\274=\350\275\324\274\272\252\370\275y\343-=\032\301\257=\341&\274=\352{\217<_gA>$\025\006>!\002\357=*y\207>4\3340\2764\375\250\276\"o\013\276\225\310>\276(\002\317\276\"5\202=m\020)\276\000\260|\276\202z\271\274z\336\220\276\335\017$>E\304{=\363\2016=~4K\277\207Q\001\276I\371\217=\037\017A\276\033j\200\274c\273\024>\335\216<\275\374\036\352\275?{`\275\240r\017\2761~^\276\366\033\n\275\305\277\020=\215x\312\2762*W\276\031\375>\276\356\215\001>\317\220>\275I\214\020\276\200@\344\275N\225\021?Y\007`\277\240q\035\277\357\363\235\277\271\213\246=B\'\n>\177\230\245\277\013vO\277\317\347\032?\352\314@?\317\337w\2752X\371=\032\004`?L^C\2778\205\203<t\007\342\274\307%\332<\332\n\225=\031A\356\276n)\364\275\243\032\022\277H\326\240=\343\n\303\275)\'\325\275\006\303\200\275\0073:\277\352&\212\276)S\236\277\037\343\250\274Q\247\331<\335{#\277\361D?\276\375?\000\277\021\334\022\277\035u\325\275\002\307\202\277\310\343\372\273\201g\"=R\364\217\277\237mE\276\016\232\367\276>]G\275\177\316\225=P@\324\275)\003\307\276\t\306\n\277\r\377\177=M\216\r\276\266\252\317\274\010u\021\275\243{\255\276\367k\200\276\242\313\327\275s\256\233<\314\026\271\275EW\034=\'*\363<\004\006X\277\371=\026\276>%n\277\025\013\340=\2505\343\275x\233v\277>\237D=8\017\376\276\312d\016\274\334\346\007\276\377|\344=\n\372\305\275\327g7\2769\021\'?\314\257<\276h\204\036\276\367U\272\276\020\262\204\275eO\225>\373v*\277\200d4\274\317\347\003=1\330p\275\345n\205\275\257W\324\274\230!\316\275\247l<<4M\205=\364\026\204\275\331__;54Q\275\376\026-=\032\201\274=(z4\276\234\014\216=JY\r\276,0%\276\034\212F>3DQ=\001!r\276\2557\206\276e\353\340\2746\220Z\276\370+P\276]a\222=\302\270\256=\024\264\000\276)\316\337\276H\035\322\275 \211\303;n\007\243=\321>#\277h\002P\275o\245\367<,\314\035<Q\236\305\275l\316\023=\242n\356\274}\0101\276\261\256\031\275\347\312M\276e\177\374\275\346)\027\276@\233J\276/\013\020\276\374\'\210\276\324\327\303\274\2710\'\276\013\240\005\275X\347\247\276\030\274\032\276\343\020\303>\'\036L\277O\251\t\277\032\234~\277\334v\365=5\363<\276L\332B\277\2577I\277\364\254\270>q\221\010?F\200\254\275\302\315\213\274C\014\r?\006\336\025\277\362\237\231\275P\213\346\275\331\202\037=\334\260#\276\266\336\376\276\311\317T=\235\335\272\276\235\3061\274\"\304\276\275\221\345-\276\200k\222\275\273\303?\277\301\013\020\276\235*H\277\236\334\217\276\366\336:\276\354\330\\\277\232\267\306\275S\034\342\2766Xk\276I\367\031\276-=\n\277^\217\217\275\366b\336\275\211\010\341\276V\370\224\276\206\360\324\276\"\313p\276\024\037\177\275\252\327\270=\360J\013\276\332\330\233\276]\335\000\276\346\020&<}f!\276w\356\234=\010\212t\276\375\034\352\275\220\323\341\275\016\227m<{gj\275]\350\335=\213\304\031\276\312\020\021\277\022\"\205\276\324\0044\277\261\3368\2761/\021<\264Kf\277\025*\274>\256\305\225\275?`5\275\270~\366\275\352\352\260>\306\000\201=-\302==\277\005\357>\030\332\213=n\315?\276\236\346\227\276s\354\004>\330\375\264>i\272\212\275\034!\305=\234\207\006>\245\375[\275\276\336\210\275\375\241\263=7\366\315=2\342\225\275\247\016\365\275\256f\244;\336x\322\275)JU=\263~\362=\217{\341\275\216\247\333\275\242\n\221\275\0040\224=\025\260\342\2756\272\252=\313\3542>\234\332\253\276\272r\222\275\271\017$\276\240\263h\270\030Me\275+\3766\276\204z\231>\233\376.=\370\305\034\276\316\010\330\276\201\271\243\276\261\353a\275\006\271)\277 7\335\275%\316\022\276\203s\200\275QTZ\275\022G\335\2750\306\341\275W\033\205\276\311\"D\275\250\255\307\275f\006=\276\010\230\203=\250\203\374\274K\363a\275\260\352{\276\207;q\275!\247u=\300:\010\276]\215F\276sQ\251=\027\013\345>\300\276\306\276\r^\277\2768\273\366\276\'C\231\275\321g\323=J\224\361\276i\231\233\276\357\246\360=*u\311>\257\005\266\276\340;L>^-\005?\032|!\277\260\364S\276\361\n\177\275>\334\250\275\342\215\342=/\003\355\276\212\214y=\014\260|\276*\345\310\275\3043\031;\235\254\342;e\200\002\276\366G\001\277\001\256,=\307}\r\277\265\"u\276\242\314j\276\326\t%\277%B\027>\317)\307\276\360\305\201\276\220\3464=F\262\342\276\005\234\003\276<\261\342=\316E\334\275\\\";\276\310\262\352\276S\211\000\277\201\203Y\276\022\0279\275\005\215\334\276G\374\246\276\372\010\225<V@\277\2752\204\025\276\317M\340\275d\313V<\364\253(\276\275\253\304\275M}\252\275\031#a<Q\345\317\275\273\301V\276W-!\276\037p\261\272\370Gx\276\024sK\276\350~\026=\366\341\346\276\276\273\221>\332\223\376\276v\366\253=I\204\217=\215\343\202<]\030W\275\226\017\261\275I\344u>\274\375\372=\374\036\236\276\224\326\236=\004s\222=\327k\346>~\310\300\276\010h\210;\252}#=\202?,\276\331\364\372;D\346\257\275\342\353.\276\250\263\302=\022\007\224=\000\206$\276\2505\216=\272\353\006\276[` =#\025\331<o\275\271\275t\364\313<\356\365\034\2740\262*=\220Hh\275\347n\330=J\366\261\276\013\267\221<\216~f\275!\250\312\275\264\027\262\274\245b\303\274D\300v>\226\3623\275\320YO\276~x\365\276\216C\315\276\366d\n\275\366k\340\2767P\254=\225\356\326\275W\202O\276\336B{\276\034\3533\276Bg\304\274hMI\276B\022\371=~\201\337<\310`_\276P\340O\276y\n \276\277\377\222\275\334\362U\276q\366\310\276T\331 \276\177\312\337=\266\237\331\276\3258J>\271\257=>\3412B\276%\243V\276\241\370\362\276\334\003w\275\004\257\022=gf\244\275\0239\231\276\345~\204>\361$B>\201\034\257\276\213\3755>[w{>\224\223\230\276F\342W\276%\0049=F\307!=h\007\014\274\374\254\"\2763\270\332<+S\211\275\"E\242=dv\033=a\026*\276\244\325b\276\275R\000\276\266\023\037\275\311\253\222\276e\247\002\276*\353H=\267\\\342\276\253\246w\275\375G\023\277\037/R\276\206\226\014\275\025w\024\276Xu\243\274\371\351P\270\255Q\n\276\242\311]=\234c\210\276%R\307\276Bq\276\276\004Q\035\276\013S\253\276\367Cz\276\033\"\315\2752\223\300\275\322\370\311\275\367\224\225\2756q\276=\024\335o\276[\361\t=A\271\025\276\363\177\033\275\247V\371\275u\351)\276\335\372I\276\034\005\235\275\215\367\321\276\307\316\215\276:\340\255\275==\351\276x5\275>\213\261J\276v\253\013\276\275&\006\2760\006\206=\231Y\225=\315Q\352=\255\215\314>\3138\377\275\026\374\325=oD9\276\343\304\243\275t\357\020?i\341\373\2761\267|=\301\274\030>(\266\303= \312f=\363\225\216=V\344\363=\211\242\026=s3\356\274\027\\\334=\023\016\001=\016ix\275\341\3445\276\247\363\004>}\0229=h m\274\211G\314=R\037\213=\265C\202>\275jc=\"{\303\276\330\026\265\275a\347\262\275\274y\025\276\360h\313=\366\016\203=\203\352h>.\217/\276K\330\233\2769\322%\277\323\2067\275\013\344\227=7R\364\2769\354\006\276\265\227\014>\245S\342=Z \250\275`]\221\275\201\205\"\276\212\274\n\276\021\2028\276\354\300\203\275\004\006\246:\337\312\"\2763f\026\2764\356V\275:n\"\276\030\020\341\275\255C\n>\330!\n\276}P\301\276\211^<=\361\021\016>8_k\276\005xP\276\023\222\216\276\201^\365<\246\365p\275\031\326\325\274\244\224a\276\006|\266>Q.\325>\333\034-\276VH\227>]M\315>\0141x\276\\\004$\275\325\326Q\275\025\035\024=\326ks=\n\275\341\275\270S(<\250\245\341\275a\300\371\275\375S!=\036\226\265\274I\254\225\275IZ\266\276\014>\027\274\320\252\000\277\020\320\204\276U\005\004\276\223\321\363\276}\336I>m\340\035\277\355\336\201\276\324l\032\276\355_\241\276\034e\236=\232\201=\2751%\224\275\341\002\014\276P\034\241\276\214E\346\276\000P\322\275w\255\006\275\202\337\215\276\362\270\230\276\035\360t\272K\004I\276\333\343\246\275\227.-\276\262\205\250\275\024PK\275\230\177%\276\377\257\237=\214\226\217\274b\037\204=P/\343\275\036)\366\275D\212Z\275\236,\004\277\267Z\301\275E\007!\276\022\376|\276\366B\265>\2263\003\276\315|\026\276\364g\016= \nG=\236P\032\276\275\323\355=\246\370\201>x\346\331\275L%\204\275\230ez\276W\266\022\276\315\352\002?\264\324\343\276\244\004\002\276\322#t\275\327\325)\276tR1=y\243\t\276\250C\034<\031)\202\2754\233\204\274\347\213\010\276\361\361\247=\200\307\261=uaE\276\347\245\367\275\223}\220\275\212\232Q\276\006$.\275ID\370=\256\221\253\275\022\262\205>\237\310&\276\263\240\350\275\261\333\025\276)X\270\275,\316\215\274\344\271\234=\024\204\t\275\255\204\321\275\241#l\275\222a+\277\3256\214=\346\320\330<\230L9\277*=\260=,)\366\274\310\266\327\275\017\006j\276\022\2437\276\356W\002\276\\\317\242\275\327\000\'\276\r\370\215=\254\377C=A\240T\276\\\232\370\275\207$\357=\266a\021\275\361\2307\276z\310\371\275\027l\367=\177\333\274\276\330\372\200>pYu>>\031\366\276b\030\237\276\267E(\277\226b\264\274\362\270\n>\227\"\244\276\3062\200\276XEb=\334a\230>\224\313\005\276N\027\255>:\215\371>\313\376\220\276>3B\276\342r^=K\250\300\274\347\201S==r\221\276\220\177+=\000\223\022\276\351\362\246\275\346\275\247;\274fN\276\262eY\276hV\367\276\\7\346;\275\355\316\276\2767\034\276\203\344I\2762\374\350\276R\276=\274<[y\276[S\364\276\245\275<\276\037\017R\277ZK?=\211\013Y=w\302\363\276\000{\301\275]U\261\275\rw3\277Kd\245\276\2353\307=<E}\276mB\277\276\t2f=\315Wv\275\303\375\266\275>\245\r\276\302x|\275DYu\276\262\301(\2761t\014\274\372h\212\275\005w\024\275P\267!\2767\274\314\276\255\352u\276D/\024\277\216\266`\275s\257G\276xC\340\276\224^%<v:\260=3\251\032\276\263D\024\276\303\013\254=\374\013\313\275\025\362\321\275S\254\213\275\321&\024\275\177QR\276\252\304\212>\273\014\350=\0370\271;\307\255z\276=\366\264=\331\272C>\000I\033=>$\345=\306\230\202\275N$>\276\343\001\365=4m1\276y\367\037\273w\244\026\276$QH\276\n\225\014\276\200X\301<\271\251I=\207\'\272;\240[\313=\251z\264\275\217\367#\276d:\357>\014\224\304\276l\211\223\276\266Q1;\3375\213\276|\354x=\353\304\240\274\371\255\226\276\202\002`\276asi>\263;\225\277\207\374\014=\202\202\276>d\035F\2771\022\325<\223n\343\275\005\026\032\274\225\202^\276c\342\025\275\213ZB\275H\270M\276\023\317\020\275\244\213\223\275\271\345\\\276\353\325^\274}\255\244\275\225M\324=\334\007\225\276\026*\230\276\232\241\221\274{\022,\275\325\251\222\275\345\233\220\276\242\244\004?\036\254\001\277%9\326\276\363\313\222\277\262#\014\276D8\037\276~\360\200\277\374v,\277\230f\244>\222\337=>\"\242\237\2761\3518\276l&\022?R\327\022\277kR\361\274\246\360\316=j\205\005\276\271 \351;8s!\277\203c\217\275\203\334\251\276\327\032\230=qp\004>s\327C<\021\016\216\276\007\r\205\277\242\347K\276\013\347q\277[;e\274\201\221\351\274\367]w\277\332\374f\273z\264\251\276\237J\305\276Dj\235\275\272G\230\277\262U\007\275~.\037\276.\342\203\277\314\200\323\275\226\276\262=\036\232\036\277_\363\007\276A\307\211\275\034\251\300\275\312|\265\276]\215\251\275\237\013%=\335N\3318\267/\244\274\036\315d\276\264\201r\276\234AF\276\226\273\252<\031+\270=\364y.\276\361\346\023\274\202\020p\277\227\276\201\275*\037q\277\233\276\003\276*A\304\275\326\252-\277Y\023\204>\2056\250\276|l\024\276\240\316\017\276\261\217\322>4\352\306\275\237\254\377=f\\\010?\231{\364=`|\322\275\032T\224\276\271\367\325<\335\245\206>/\341\273\276\326\205\t>\303\021\'\275\273/\207=\231\317G\274\004\271L\276\023h\363\275\025\336\257\275\375\330\357\267\\1\013>+\265L\276\375\311\314=\235\316\275\275F6\010>\277\365~\276 \304\336;Y\002*\275)#\315<\203\201+>]\367*>\006\322\265\276:\230S\276k\204:\275L :>7\264~=\014h\314<\177~\021\2759%,\276\324\257S\276K\213\024\276C\2402=\335\035k=R\325\032\277/\344\233\275\2065{<\332\326L\276\300\025\030\276\372\375\376\275\000V/\276\235\226{\2758\024f\276\267\3578\276@\211I\276\177b\010\276_\231U=\274v@\276B}@\276\263\242\316\275\333X\023\276\033\217\302\275(G\236\276\365\001\034\276b1\032?\315^*\277\311 \364\276\204\346\003\277\244\341\233\275&\256\277\275M\236O\277\367\331\365\276|u\226>\267\027\352>\231\216\001>\0365t>vjM?V!.\277\220\370S\276\357=)<|\315\240\273\001\375\261<\002\344\373\276F\356\r\276\216\367\305\276\003\374-=\370\201\227\274\'Xj=\274(\n=\304}$\277Sh\224\274\326\307@\277\222\307\035\276\272ef\276@\262_\277\257y\032>q4F\276\033n\331\276\"\207\253\275\313\340\315\276\332\263Q\275\246l\306=u\374\007\277\271\273v\276y\277\014\277{\231\206\276\262\256\212\275\307\347\030\276\371&\250\275\037H\207\276\264}T\275K%\347\274\260\177m\275\245m\020\276\202i\"\276\344\003\003<A\2305\276F\214\233=\310\334\230;;\3108\276DdO<B\321\013\277\363\325j\276\211\005\340\276R\225\357\275\273{9\276\\\327*\277\314SC>z\275\316\276\n@\235\274\225J\220\2758Q\310\275\030\375\223\274\252\364\202<\242\235\353>\027\214)\276\314\344\332\272\337\027\031\276\271H\000>\270\312p>.\360\312\276\245\273\347\275\033-\352\275w\242r=\306im=>R\266=\2169\035\276\265\246\200=u\023\316;Z\007Z=\007\345{;\251/\005\276\024\3704\276 \374\225=\2529#\276w)\315<J\267\373\273\374\225\036\276@\305#>\264`\242>\207O\205\276\211u\255;*\270\345\2755f\006>sM\203=\210\342\235\273\261}z>Z\256\236=\331X\216\276\252e\242\276\000\031\025\276\341\200\263<\336{\002\277\306\\\275;\250\260!\276r\271\225\275k;\231\275\257\201\307<B\225\353<\360\365\023\276r\370\313\275\335\377S\276{P7<\225\344\331\275\206\220\260<\rf\367\275\234\026\230\276\202I\r\276\236\006\366=q\341\"\276\000\240\231\276X~\307>\322\310B>\317\360\330\276\222\265\210\276\317\303\234;l\242\257=g=\256=\236\261\223<\352w\336\2761\327\031>y\"\272>\323\274\323\273$\035A>9\027\352>\245\246\357\276\005\256f<\257\224\323\275+\275$\276K\0356\274\216\321t\276\223\003\206\2758\340\027\276\373\304\272\275\277a&\274g\274\331=\021j\327\275\356\3210\276>\266\352\274\037}\275<\302V\n\276\300\304j\274\326\265\223\276\351\236i>Y\205\342\276$N\316\274\377\321{;=\332\002\276\036c>\276\316\273\264\275IU\224>g\016g=\320\027\334\276\231\361\343\276\233mp\276\311\307c\275eQ\262<\324/\004\276Q\323\006>\315\022\271\275\223C\377\275<\303\320\275\\U^=\200x\210\275\201\367\000\276\243\346\007\276\236\3622\276\221\032U\276\231Y|\275\352\336j\2763\360F\276\247f\346<IV>\276\004\214*\276N\304\013\276J\210\020\274\030\315\351=\315\330\367\275\360{\007>\232\343\027>\205\0038\276\277X\266\275\323ER>|z8\276R|\215\275U\370v\274\355v\310\275e\316+>\250\244\327\276Y\236\000=\024\230h=3c\022\276w\0336\276\276\245\334\275>\376+\274N\221\002=\233O\245=\213\273\023\275\252\211\022\274=Fq\275\301\316$=\033\364\307\2731\014\335=\243\304\253\275\266\031\234=\275\000#>\315\001F>fo\343;\336\034\226\276\220\021\323\273p\367\006\276\264E\327\275\260o`\276\307\010\027\276\301(9>6w(=\370<d\276I#Z\276\322|\321\276\357\t\306\276Y\305\016\276\337\223B\276\024\"\005>\250\3650=\311\3123\275V\300\211=<?\306=\031B\336\275J \226<\370\343-=\321@p<H\260\200=\2314\025\276\257\252\n\276-}&\2744\313\330\275*F\022\274\001t{=\374R)\276\273\345\255>`\\!\276\271\315\024>\333}\355\275@WY=\370\313~<\021\266\271\275\317\203\022?(\322\t\275\301j\327\275\242\301\001\2768\204\236\276a5\300>\375\332$>\275*\225\275\262\256I=\324vL\274m\233\002=\032-\032\275\002_\300=\300i+=\200l\226;]\247\330=\217G.\276\336\221\357\275@8Q\276)|\325>\356\250D\275\276\004\203>\272.0\276\361\265Z\276\343\215]>z\013\207=\347b\270\276L00\275\352_i\275\321=\032=J\265\250\275b\034\252\275X\367\202>\237\312W=\215\327y\276H\2770\277!\210\246\276\021\327\271\276\305\323~\276\324\323\240\275P\246\274=\0010\360\274&\245\027\275\243\034\243\274\205Y\332\275\255^\214\276B\003\234\274\206\266\261\275\351R\212\275\323\223\211\275I\343\016\276W\036\366=\345\3678\276N>\003\276U\003\034\276oYt\276\230\217\003>8\333s:*\205>\277|\326!\276X\376\027\276\334\230\200>\222H@\276\346w\274\275[\302\022=\200}\251\275\370\n8\276\2278$\276\3458\270=`l=>\220\255\022\277j\276\227\275\213\022M=\244\345\366\275\355\234\350\275#]\001\276\"g\347\275\366\304\326<\010\221\343\274H\t+=,\307L\276Z\002\245<I-\332=\360\214\035<\377\017\221=\323x \276C<U\274\324\271\004\276\303\220\234\275\330J]\276\201\222i\276/9Z<\356\241\017>\317\213\206\275CF<\276f=\033\276L<\037>@\337\307=f\306\364\275/\312\032\277@\351\365\275\014(Z\277\tx$\277\312!;\276\371\t\007>(s\330\275\246\017\023\276\277\325>\276-\205\n\276\031f\275\274\013\221\313=_\250\354<`H\016\275\240\204T\276`pY\276\246\341 \276\222g4<w\261n\276\322:5=G\261\312\275\373\2561\275\213\032\334>\305\3545\276&>\251>\256\221\027\275\353a\210>\205@&\275\220\013\006=\305\255\347>\351\005\305=\304l4=\350^\336\275\372\247\237\276kW\267>\r\371#>7\211\362;\266\210I\276W=\016\274\213\2150=\261\205\321\275l\023K>P\230\017\276@\024\004>\017\347\264=!)\300=\353&\351=\355lS\275\267\215\372>L\215-\2765+\275>>\303\246\27600\210<:\202\204>\"\2056\276%\036\037\277\206\307\301\275\247\342\301=\177\266\207>K\307\345<\363lh\275\262_\352=Q\032\276=\014D\312\276\333x5\277V]\336\276\324\241\260\276\213\323\342\275\357\215\314\275\003o\206\275d\260\244\275\004\010\201\2762\224\206=\254\\\267<\006 \034\273J\016\004>#\207\211\275*\245\244\275\324\3028\274\302?f\275ko\256=\'\247F\2754\330\010>\231\252\235\276\2267\362\274\350ra<\2610\255>\354\320\257\275\201\026E\274\211\2163=Y\3610>\005\257v\274\254?\304\275\277\364~>Q\037\304<\230\325\0359\335}%\276\350&h<\373\233\257>\330\311G\277\337\241\362;\312\320J>\351M\312=\200\276\251\274\274z\177=\036\343.\274\362\303\022\276%\025\240;\354\371\360\275\256\003o<\342L\\=\033e\030=\000\027\222=i\247$<\005\031\312\275\004\222\205=$\036s\275\277\023\014\276\277\317\366\276\002X\264\276\037\2233\276\027\327/\276\327\360\t>\251\247&\275\001\302\013\275\341V\312=\352\303\315=\354w\273\276V>M\2772\'\007\275\354\260\307\276Q\233\332\276\177nd\275 \275\246=\352r\312\273\340\016U\276\036xI<j\027\274=\252\244M\276?V\304\275\007ZC\276\217>\222\275\311\251U:\024k>\276\324P\024=\240i@\276\001\237\221\274\232\360\304\275A\236$\276/\314\'\276!;\326>\273\355+>vW\213>\247n=\275\264\220\031? Y7\276\202o#\276\223\032\336>\301\307\266=\027\206\312\275p\016\t\276\005f\002\276\r(\220>\322Z\354=\251W\007=\001\177\020\276\007\331\n\276\257\000\230\275\236@\204\274\226\246+>\307Cf\275\335\331\324\275\356\312\035\275\256R\232\275\'x\271=.K\213\276\246u\264>\344T\334<a\316\207>\"\020\245\276\223[\337\275\202\256\306>\335a\312\275\022\374\333\276\360\231\205\275\347\201\320\275`\364\230=\237\220\207\275R$\200\274\017V\300=\356\223&\276\226\032\317\276\017\201\365\276\240.\n\276\205Iz\275\350\332\205\27678\302=\036\311\215=Nj\r\276\334\n\236\275E\237e\275iC\013\276\347\235y\276QU\376=\231\026W\275\245>\221=SR-\274\370L\206=\224\202\216=\311\305\212\275B\021V=\022C\237\276\302\224V\276\332{\230\275\265\207e>9\022(?\024\177==\346\343\204<Y*\274\275\351\002u=\232\247\254\275\220\213\246>9\303\007\27629\274<{ \263\2764d\213\275O\343F>&\221U\277!\214\013>G\003I>`$7\276Z<#<\305\224\206=!\t\326\273%\2177\2765G\214\275\271\260\377=\224~\002\276~\375\223=OP\307\275L\341\274<\354\357\233<\013\370\030=;\004\017\276\324\230\277=\0044X>&<\247\2757P\001\277q[5\2751[\301<\250_\222:o2\224=\025\347%\275\316`\223>\337S\361=\252\325h\276\204\034(\277]\263U\276\3238\373\275\315\230\r\277\311\025\010\275x#\322\274\304\373\350=7\337/\275\275\321\"\276I\335\371\275\275\016S\276\277\374\023\2765J\024\276\351*1\276\006O\233\275\267&\024=\220\232p>x5~\275\025\352\226\275\207\223\027;R\203\304\275H)9\276\321\224\265>\253\247\217=O\352\000\276&\206Y\276\253\227\246>\035\006,\276l\340\037=^\337\217>\353\305\006\275\251\033l=\306\315\272\275]\3125\276r\277#?\222\216\227\273\2062\006\276\350-\n\276\2015:<Y?\305<\204=\031\276\2251\321=jw$=\2601\321=o\r\330=\357C\243\275\233\244/\276yy7\276XF\r?d9\'\276hs\260>\327\246\341\275\263\214T\274\355\002p>\303\016\267\274%\014\277\276\223\263\235\276;4|\276\214\003\216\276\307\275R\276\340\216G\2730\371V\275\3642r\275 \274\275\275\233q\251\276\215S\305\276\270\315\336\274\322h\257=f\006\245\276$\226\014\275\201\0377\276?f\355\275\010);\276N\321!\275\333\035\032\276\354\001\273=J\325\004\275\025-\362\275;>H=I:\274\275,\222\374\275]\374\312\275\264\233|\276\310\204|\274\211\204\023\275\346 \205\276`\030\332\275\333\253b=\375J?\276@)\202\275\200M\336\274\331\201\270=\2165\336\274|6\230\274EC\306\275\2713\027\276\254\210\261\273\030\002\274=[\277\263=\365\265*\275\337\351\000=p\304#>\264\354\365;3\226\327=\307\273!\276(\325\034\276\275\202\023\276\365\033\221<\203\361\337=DL2\276\256=\t\275\226\257\000:\037\002@\276\000M\315<\353Cg=\2137!=\260_F\275\313J\352\275\354\032\237>u\022\215\276\026\330?\276\247\312\335\275Q\003/\276\004\001g=\361\006\251=I\2561>\264N\271=\342\310\344=\217\254\201\277\363\247\272\275hL&>\3640?\277\016\240\021\276\233\2355=\017\247\375\275n\216\234;\271\207\035\276/\356\253\2754`\203\275q\335\324\275\n\372\360\275K\274\024\275s\214\341\275\242\244\222=,\025\364<\271\235\030\276\221!-\276\313o|=5\253$\275\333\371\375=z\332\014>yM\226>(\026\023\277\245\303\010\277L\3206\277\233\314\244\275 [\342\275\367\005(\277\rg\323\276-_\326>\377\2104>\003\351\227\276\026T#=Ve\033?\351\266\376\276\236h\276\272\016\304$\275\353\263\034\276H\310\365\275\274\204\255\276\325\026\031\276+\026\210\276\300|\234\275\317O\364=\016\374\"\276,{,\276-l\251\276\037\002\210\275\037;\027\277\221\260w\276\326\272J<%\002\245\276\346\010\351=\r\321\026\275\357\343\355\276w\207[\276\240\323B\277I\221\342<\034\255\033\2743P\376\276\030\377&\276\017;E=\010\273\371\274\274\244 \275\004\354\326=\312\313\372=6\336\'\276X\356\237<\321(\224<\022\360\346;\232@!\275\\\032\363\275Iv\272\275\364V\252\275\367\307\277\275\255\2352=\270oE=\350\363\213<\376\271)\277Kt\215\275\270p\035\277r\311\r\276\207FJ=h%\"\277\0033m>\315E\203\276\214\244\275<\356K\370\275,b\243= \361M=\336\353C\276\013=\341>\203\367h=.\001v\275\024\010\251\276\005\220\213=\236e\237>\354\3052>?\314\354\274Ex\245=\013\347\311\275\315\243\031\276n\323\251=`?\355=\014\244\350\274\226\375M\275\364\374\301=~Z[\276\362\241\340<%\302v=%\205\177>\377\257\337\274\360\300\356\275{\240\020>\\\371x\275\241\341\342=f\366\217=\264v>\276\341t \276\036J\013\276q\206\246>\010\202;\2752\325\023>\014\345\324\275\024\341\t\275\032\310(\2751\345\253\276D\211\007<VB}\274\300\025*\277?\243\360<b\236\277\275\2608\342\275\026\202E=\241\257?;\351\356t\275\2621\201;t&\232\274\2108<\276R\211h\275\016\006\004>V\2356=C\274\254\276\003\022\016\275r\017\230\275\324\223\274\274\2044\246<\213\331\307\276\233\277)=\323\\\026?\346k0\276\000w1\276\202R\212\275\362X\345\274 \262\025\275\270\370\315\276\2708\334\276\330\234\276>\010\000\227>\240q\036>K\341O>;\365\305>\014T\360\276W\244y\275AX5\276\273\371\200\275o\202 \274a\234\320\276\302\363L\276N\023\257\276\025\361\202=`\360\022>\006\';\275\002JD\275S`\004\277\315#\r\276\376\241\232\276\333\212b\276~\270U\276\201&\037\277f\355\224>a\366\214\276N\233x\276\262.G=\337\225&>\"\007#=\246\362\002\276\322\223e\276\013\'_=\252!H\276F\247\253\276==\023=\245\013\200\274T\327A\276\311CE\276\275\200\'\276\313W4\276`\273M\276\370J\226=\321,\362\275\3564\027\276H\233o\274\333F\002>\347\341\254\275\017\241\331\275?\360\206=mV\217\276\216\014\021\275\321\013?\276Z\206\025\276\010\332c\276\234a\006\277.\374\220=\327\233\321=\263\245n=g\234\265\267\320c\001\272\030}\371\273W\253\"<}w\216=\204\302\036\275E\372\305\275p?\371\275\035fg={\0274>\323U\234\276[P\257=z\r?<\030\255\256\274/{o=\177\277\321\275:\300\032\276H\330Y:N\261\016=\351@(<}o\244=A\033\240=\277[\241\275\230\333M\275\315\275\021\275\203$\023\276\254\272\364\274a\363\254\275XA\347=x\324\262;\214]D\276\245-V\276kS1\276<\343U=\211\337\325\275\350V\371=\010\367\022=\341q\336\275\270\360\211\276\231-\034\276\216\302\201=:\032B\2761\205\026\276\316\327\303<\031\242\025\276:\245\225\275\225\014s\276\004.\034\275\265\341\224<M\023\014\276\220e\212<<PC=\317\034\037=\231\010\263\274\376\207\304=\2626R\276U\223\202\276\371DV\276\202x\222<T\325\362\275\366\237a\275\204\240\005?Z\202\220=\203\')=\226\353\330=N\365i>\240\265\323=\250\242\021=9(w>\325P\177\274\37648=\310\245X>\360FC=\245\034\317>\177\233\220>o\356k\275\030\335\r\276uf\022\276\307\273\257\274\202(2\276\034\316\342<m\333\037\276\242P\030>\001\232\022=\374\370\005\276$Y\314=\242\264+\276\036\351\261<\262\275K\27552~>g5\242\276\t\274F=\265\277\237\275\3634\220=H\227\255\276@?\351=\202u\220=`k\220\273j&\013\2749\036\002\276\362\323\200>K\326\013=\244}\313\276\277G\207\276l\273\036\276\260\257^\275\323\300\341\275\t\365\356<p5\007>9\352\215\275+\347\t\276G\n\010\275\330\217\251=\240\323C\275f\271\237\275\2000\257\275\216\200\371\275\302\327y=+\221\247\274\004\213\247\275\207\260\316\275\r\262M\275}\363+\276\036\262\004\275\225w\305<\353\341\202>\246h\332\276\325\334=\276\304\264\376<\233\211C>l\240\211\275\304\243\320=\372=@>\306\255\235=\226M\266\275\372>19\022\313k\275\332\177\225>)p\252\276\343\276\036\276\021\014t=\331\271\235\275X\265\234\275\355K_\275\273\211\261\2744\244\034\2764\036\372\275L6\031>$2U<S\267\005=\364\270\331=\322\246o\275==\303\275\267gR\276\355\320\274\275r}\t>\316\356\'>4\261:\276}\235\233\276\207\037\026\2760\237L<\312\3200<N\314\246=\273\206\217\273\316W%<6\326/\275\352\214\217\275\237\317\\\276\230\'\345\275\373\325k\277\265\315\226\276\355\306\273=\236\306.=@\322G=\341Y\363\274\266\020\035\2766hz:m\227\220\272\t\210\235;~\2216\276q\261\207\275W\031\300=2Al\275\267\360,\274\264\251q\275Y\177n\276\003\301*\276\270{4=S\345\312\274\364\233%>2u\332=\304Q_>Z\325\231>M\002\203>\271\2144<\303\005\006\276\313\305\314>PxU=Q\203\241\275\353J\271\274v\331\262\276_O\034=\002\272{=j\234\200>\202\323P\276$Jb=\201\231S\276^\266&\276/\251r=mc\037\276\014#\253=\341\207)\275\356\3541\275_Y\225\274M\260\004\276\345W\330=\216\306o\276\334\306\304>lf\214\276\na\000\276\325\202\252=\247\310>\276#L\n\277<?\302=Q\206[>\273\255\346=Tbd\276R\201\311\275\026,2>:\366\342\275\265\233\221\276\250\222\n\277\371\336a\276\234C\023\277s\247\201\276\257G\300\272\314H\016\276\364\003\367=\017P\333\275\243\355\271=\'\266\210<\334\3558\276\240\030\224=\001w\255=-ag\276\224\206>\276a\313\035\276\366M\221>\274\373\005\276\177\352m>\325\344D\276al\303:(\272\030>\341\232(>\375\356\250\276@\004\372=q\360\213=\262^\336=m\264*<\273\003\024\276XAM>o#\313\275\2427=<\234y\230\276p\340\366\275\250\313\005?\251\277\307\276w\025\204\275\340\265^\275v_\251=&\255C\275\212\361(\276,\t\305=\3550\016\276\263\236\020\276\214\035\225=-\356\264\274\270\356\273<\3277+<\254=;>Wi\222=\350\024\004>\336\350I\274a\306\222\275\023b\335\275\376UP\277\001D\225\276A\345\025\276\364\356\326\275\277D\210>;V\245\275:Y\000\275\010\2779\275\370^\206<Z\031\343\275\336w\013\277\267\256=\276\346\274\230\277E\244K\277f\\D\276)\314\336\275KeS\275M\024M\276h\024&=\307\334\322=U \247\2755Y\204\275\312c\r\2769\007\004=5\250z\275w9\372\275.\375\245\274\325La\276!\337\335\274\026p/\275\217\317\371\275\265\354\026>k\250\263\275\330\213\022<\035\205}>hn\035>\031\356\236>\375\345\022;\362w\002\276\337\221\212>%\202J>3\007\267=g\311t\276\223\357M\275\363\331\262\276\311\307\334<\354WJ=\311\024\t\276\375\2222\275r\002\200\276\315\024-=,X\\>\034R)\276\353\322S=\223K\241\275*S:\276o\321\200\275\014\225\251\275zA\251>\343\016\312\275\264!\004?\375x\n\276\005`a\276\257\373\256>\305K1\277\\\316\267\276\264(\361=3\364\034>\337C\370>\361\270\014\275.\017\346\275A\321F\275\330<\236\275X`\332\276&\307f\277\245\010\257\276\335OB\277\333\010\351\276\321\350H>\200o\016>\035\330\244=\314-V<\010-n\275;\370\014>\363\271\374\275?_j=\222P><y\330\310\275\207l\332\275\227\244\371;\360\234\347>\334su\276k\340\365=\024\014?\276\264G\205\276Q\t\372>\270\372\332<\245\230\223=\320\324\212\275\035\354\222\275\024\2302\275\353\251\315\275z#\206=\264\350\212>\232\\\350<K\210\357\275\207\306\001>vb8<v\267\002?\322xw\276\014-(=\020\003\267=\371\033\214\275X\003\225=\206\034 \276N\024\223\273&}\277\275T\244;=]\360\343=ls\241<\357\374[\275V0\t\276Xn\305;\273\225\340\275\346b1\275\356#\343\275\250\017\211\275\365m\210<\346zz\277\221\274\307\276\354-;\275\331\215\277\275A\215,>\230\210)\276,U\236\275\212\361\215\274k\273\361\275s\226\302\276\316[C\277m\n\304\275\024\032]\277\0063o\277\211\253\212;4\353\306\275\364\200\326=J$/\276\200=\033\274\315\211\330=\235\335\325\275+\254@\275\313\260\030\2760;Q\276P\305\010=\305d\256=[(@=\251Y\226\276\220\306\366\275ui\"<9\331\t\275|D\327\275F\014\226=\237\260\241\274\276tD>\260r\213>c\346\024?]hB\276\265\rF\2767\344.\275(\0330=$ r\276\267=\014\276\025\267\177\276\272\315Q\27687c\276*x\024>\246\216?\276Y\257\014\276\205a\360<\262\365\371=q\225t=]\366\265\274\341!\341\275\247\000\036\276\226\024S=\225\267\355\275\324\346\200<\211\304\020?\246\027\001\276\213\017\205>&\210\177\276~\222\315\274\246\335\263>YR\277\276\342\252\342\276\200DA>\251J\253\275\020}\237>k\230\001\276}u\312=`p\200>\277\342\356\275W\247\342\276\300\003C\2772m@\276_vH\276\355T\217\276+b:=t\237,\276\220v\252=2\210u\276\311\005\244<[Q\203\275M\227i\276X5\010\2761\271)=\321`+;Q\234\240=\376\3470\276\034\005\332>Y\037\327\275\262\316I>\342T\221\276\272\237b\276`\236\213>\272f\220>{\331|>ry/=S\272\'=\200P\356=>\336\233\275\234d?\276\257\350\234>\311S\346\275\2743\311\275p\263/>\002\311\273\275jj\237>B\005\276\276\033\211\237=I{e\275\305`\235=\033\020\343\275L6\302=\230\332s=\270\276\033<\275\213V\275\312}\307<|C\232=c\317\'\276-\245\225\275&\302\323=\006d\311\275\272\nc=E\225\362\275\024C\203\275{9\033>\024\304\343\276v\325\021\277\240\321t=\363v\205=\370\037\252\275\177To\275\343fU\275{z\t>$*\300<m\266\320\276t:\360\276a)\204\276\341$\256\2760\267\026\277\004j\330\275p\033\010\275\226\210\342\274\312\316\017\275\337\204\000\276\035u\037\275\021\030\324\275\306\022\332\274\344c\200<\241\244\251\275\301m\310\274p!\355\275y9\255\275\336O\334\275Hi\210\276\323\303\301=\212\301*\276\364q\274\275j\346\350>\256\300\367<\033\341\027>PQK=\005\017\000?\277\371\000\273\355\374\021\276CT\017?\225\000\010>\216Y!\276\326\352\t\276\"\034\205\276\343D\010?\342-\326;S\212\007>\347\352\"\274\366\341\370\275w\005\224\274:\221\207<pie>\310\310\203\276\271V\214=0\210E=PUg=V\323\212=\246\362\032\276^/\014?\235\030-\275j\240\254>\357\276k\276Yd?\276\254\031\302>\207i\002\276\244t\005\277\225\267\322\275\031\027\340\274\244^\236=\306\030%\276\\\206~=K\023\377=U\306\030\276\221\321\353\276\222-\300\276\202\200\233\276\321\034\310=V\265\020\276\375\272\t\276E\357^\275\253\005\024\276\203\n\313\275\313\253\000\275Y\227\267=A\257N\275\300\316$\276\360\215\301=\2233\235=\263\036\'\275\016\351H\276\245\003\202>\265\024\343\275\260O\231\275\221q\271\274=:y\276H\233\'=\223\335\352=\310\177\251\275\3047\302\275RFo<\341\207\354=\037\226\024<\314U\262\275\257\326\200\275\234s\003\275\246\261k\274H\007\">\026K\250\275\250\036\231=5r\033\276\034\346N\276\205\007S>\033\325\337\275\272\327\210\2744\257p\272\372I\007\275\346h\001\275\324\367\266\275\212T\221<*4\314=\014\273$\275\276,\333=fKf;YKc\275|j\204\273\001\032\217\275\264X\322=V\010S\275[\202X<\200\314x\276\017\242\001=\307\2629<~\253R\276\207\206M\274\230I\333=E\203(>*\3234=Vy%\276\326\r5\277\214\337$\276\263\216\243=\301\311\002\277\247D)\276\245\246*\273\301\236M=e\024>=r\022+\274\330\311^<<;\321\274\tC\014>\351f\250\275\003\212\247=\242\310!\276\330\343y=\312\002\371\275=b^\275U\234\367\275\341N0\2755\303$\275\374\025\r\276y\236*>\327\0263>\277>O\275\230\322\005\276JT\202\276p\375\010\276\312\017\341=\341\037?>\256&\003\275\230\363\312\275)\203L>-\031\351\275\014`\013?J\277\216>\027\372\013>\306\023\317\275>\260g\273\024\356H\275xL\r\275\020d\250\275\002~k\276\377\273p=G\350\034>0w\244\275\335\224\032\276\017\361B\276b\010B;0*l\276\270U\262\2751\025\217\275\377kd\276Q\320\220>\272\317\362\275\245z\033\276\363\032\252\275\356dF\274gO8\277\202Z\245\274;\215\353=\225\225,\276.\000a\276M(T\275\022\305\346\275\247\256\360\274\353\313\032\273A0h=\021U\240\2750\217)\276\210\343\334\275\020E\355\275&\273\257=\2273\304\275\"\177\240\276(\376\203=\346s~\274k\233\024\276\210\317\333\275\177\254\375\275\010r\307\276\231\326}\276?\020\r\277 \226\207\275d\215\260;\222G\245\275\343\213\274=^p\327<\303P\033=\347\r\230\274\351\253\323<\363\327\315\275\276\303\013\276\224\256K>\3624\005\275\'\3148\275&\\\013=\rX\032>\367\342\360=\267iC>+b\336=\3439\030\274\213\'\263=\014\000\263\274z\246\347=\262~\034>%r\003\276\317\334\201=\256Z\3639\244@-\276\273\005\362\275\001\201\025\276=\307\254\275O\007\207\275\024\347\334\275\370N\034\276+o\372\275\360\267\002> \020\272\276\233\373\304\276&\375\207\275y\221\220\274/h\371=\364\017}=\256\340\2468\031\333\032\276\343(\241\273\351\307\214\276 \361\016>o\t^>=EJ\276o\271\373\276\233%\334\275\303\000\032=\230\340\034\276%Ol\276\307\232\217\275\372]\324\274\321c\002\276\"-\214\274\314EM=%\273\031\276\257H\236\275R\010k\275!\372\024\277O\031v\275 v*\276Om\024> \266\223=~2\200\276\320p\225;\016\314\326>\313\037G\275\000\032\003\276\314>Z>O\215\337;eh\236\275\271\327\307\276B\371$\276y\205\202>\353r:>\206\217\224>\316@\006?\266\227\331>\237\2114\276\304\326\030\275y\324\315\274\036A\227=\216\263\375<K\265V\276\272I\202\276\232\030\202\276\033}U=\232\245\006\276\251\353\312\274b7\000\276q\303\031\276\361\202\211\274rK\272\275r\355\373;dp><\020\332\340\276\364\034\032<c\267\222\276\336\304%\276\276\\\023>(l\005\275u\344?\2765\201\222\275\0261\251\276\301,\365\275K|\227\276\257t\327\275Vz\346\274\351\357Z=\023\250\200\276k\370\277<,\344\375<0`\032=A`\014\276+\227\202=\344:\335=Z\350\224\276\334[\275=F\217\240\275\177>\256\275\323\317\245<\326~&\276\304 \312\276\336\3443\276S~\016\276\327\357\200\274x\220w\276\341\254\021\276\337=\000>8\335\344;\275R \273\270\352\346=\373\356\022=\216\"\221\275a\204\332\275\274Y\234\275\376#\212<\354\317w\276Sl\252\273\025Qq\275\032pF\274\310\314\213\276\004\335\343\275\030\222\325=\007\266\303=\"d\004\276\306\005\206\275\016[F\275\250\312,\276\320\241\274=j\341\025>\272\017M\274\322\'#\276\361\242q=\212\274{\276\301\2463\276?lf\276\236UU;\250\025\246=b\027\213;\";\247<\251\321\237\276\355\021\256\2758T\204\274 \255\024=d\276\360\275\000\0001<\013\214T\276\230$\357\275\"\033\213\276\365c+>\001\373\004<\374\\j\276\320\n\366\276D\311\031=\3512\000>\037\275\370;\364\362\204=<6\357=\360\357\301<\247\370\033\275\213D\341=3m\361\275\262i$\276\271\301V\275\362\366\253=\035\354\235\276e\314\212\276a\3129\275\346\266\224==\343\026<S\0171\276\2131\004?]t\350=U.\207=\306\'\213\274\254H\261>c\264J=%\361S\274vqq>S\314\006\276U\224\025\275\242\246F<\315\344-\276\336\201\247>\201\253\274\274\340i\262=o\324j\276\210\235*\274\250!\260=\302\333\025\276yF\375=\2754\224\275\206v]=G\244\220=\254j\330<\240W\027\276\375k\206\276\036m\302=\210_F\276\005Nh>\353@D\276<3\343\275\357\342\016>\247\347i>\036\314\342\276\247\343\307=kk\214\275\332v\325=\025\201\254= \211)\273\006\017\"<=\315\035\275\324*\202\276\332\241\032\276}\177\002\276\360\001`\2764\304\201\274jj\250<\332|\361\275P#\347\275\205w\000\276\335\262X:\274\206\001=\025U[\275\r\005\222=\362c\375\275\251\3433=\031Q\030\276\327\321\\\276D,\273\273\263.\236\276\252\t\010>\241\t\023\276\324C\000\276N\026\t>\3738\207\275F\2719\276\220f\372\275\215\240#=H\376\263\274\030\211\267=\3014\276\274\2360N>\262\352\003\276\271\373\354\275k$3\273\236\377\260\275T\321V=\016\\5\277K8r\275\3042\336=\265\317A<\353\304\022\276$+\020\276#\274\"\276\223Y\254=VR\347=\362V\300=<\321J\276.t8\276Y\002\331=9\316-\276\004\367\023\276\364x\032={\212\262\2754{@=\365U\325\275\t\022\236\275\232\244\356\276\305\014,\276qA\343\275\306R\316\275\2608n<\007\347\006>)\'=>\234\023]\275\346\240\360\275B\367N<\344 F\276bN\026\277\033_3\277\n\324\230;b\366\305=$\030\033=\220\233<\276\237v\214\274z\033,\276\315^\004\275\373===\003\232>\275\336+\177\275j)\242\275\327U\031\274\317\001\262\275\235[\211\276\272\260q=)\225\212\276\244y\343\273LD\035>\206\366J>3*\256=\253\302\233=\255\306d>(\027\351>@\262B=\356}\000\274MG\221>\231N?\274;\250\035\273]\327\014\275d[I<\225\213\001=z\033\307\275\3341\344=\345\215\270\274\243\036\343<7\014\355=\340\1779\275)\235\204\275uGq\275h\034\017\275a\337\004\276\304S2=\0131l<x\373\262\2750T\216>o:Q\276\305\360\212>Y\004\013\276\361r\032\276\220e,?\317K\t\277\334\010\023\277\tq*=\233FO=<D3>\320\022W\276\305\254\267=\320\366\250=@\006\314\275\007N\311\276\030{\242\276\204\301\244\2768F\013\277\"Z\t\277\307\010\360<\004\026\027\275d\347\231\275\253\243d=\326\236G\276\010\036E=\025\342\204\276<\326\031\276\022G\005>\272\375\212=o&\237=\005\237\203=\257\316F>\007m\002\276\323^\007>jb.\275\344\362\002<\317\024\223>w\316]=\266o\362\275\204\3702\276\266\305\334=\356\r\321=6\006\013\276\022\"\'\276\263\320->x\350\000>\231R\213\275\005\031&>g\271\n\276\036\225\200>!xB\276/\353\365=\310\235#>\215\033\301=\264\"}<\272\214\225\275\263\364F=U\376\373\275R\320\346=0\301\261=\317L\336=\022\314\263\275\003\327\273:\340PF\275\335\250~<\351~\311\275<\232\345\274\302\037\017\276\355z\264\274.\246(\277R\230\331\276m\005\221<\206e\200=\231e\201>\333\363\n\275sS\013\276e\275\r\274\244\230<\276\262O\236\276\274\033\026\277\311<<\276\214\264\r\277\200\373\177\277i<`\275B\0313\276\031C\323\275\022\300\204\276\014A\326\275t\276\224\275o`M\274\271 \345\275\256\220\250=\030\316J=\272D\025\274\312\340\346\275\021\'\275=\277\344\245\275\007m8=\335\034\273\275\245\031\324\273n\202\215>\177\255\252\276\363\374\272\275+i4>-7\265=\267\366\021?\305\302\304=\330\2247\276\273HL\276\340\"\024>\221\226K\276D\031\250\275WJ\211\276@n\226\276d\257\374\275\032g\362\274\252\037 \276\277X\000\276\004\3722\276\342\202-\275\374 \207<\217\213\005=\364\227-<\227\364,\275\243\004\355=N\030\177\2754P\033=\245P\010?}r\214\275q\366\000?\233\215\236\2759\245\030\276\302l9?\374\2162\277mR\021\277\035\371>\275$\000\'>Q9N>I\230+\276\367<`\275\264F+\276/\327\230=\217Z\332\276\237\223@\277\211b\235\276\342\370\010\277k\026\355\276\026\267\266=\035K1=T\001 \276\377\276\364:Y\363\024\276\031e\002\274|\224\311\275\212\322\215<Ap\354<F\317p\276\327\031w\275\226\\\"\276\217\232\260>\201\032\342\275d\232\226>\016`\312\275\310\313\204\275\304\020\357>\237\237\207\274\005\277\004?(\311\371\274 \272\026\275]\324r>k`\316=\031y\211=\327\300\034>,\016\233\275\304\200\305=u\243J<\335\327<<\207\342\322=\025\326u\275\004\211\230<\017\367\235\275\247\334Q\276\231\215\375<7\037E=\202B<\276\025\321\226\274z\2531\276\224\\\020=\2109\014\275\241ND\276\344\332\003\276\360\205\256:\363\350\023\274\200\201\311\275\030\311-\276Z\220)\275\322\234\233\276/\313N\277\351\252\252\276\301\276\323\2750\355p\274\020\010\270=\337\206Q=\243P\226<\002Q\356=j\215-\276VhD\276\227U.\277\252\334\352\273\241\217\332\276\001\315\216\277\260\334\260\275\250c\023\276\330\021a\274\244\316\265\2754Ag=R\177\014\2762m\254\2752\342\342={J\356\275\210;k\275]PL\275\205\037\036\276q\342+>\334c\306\275rw\026\276r\331\204\276\2175N\275\300\211(=\272w\271\276,\025~\275\376\251\212\275`\n\023>\210\361\271>\252\3666\276D\331\313=ng\037\276\025\341\t>\336\020$\275\276\350d\275\000\311\326\275\231\300\260\276\315s\033\276\225I\030\274a\267Y=\250\224\t\274 ;\307\275\327\200.\2762n\264=\307^\024=\374\371\235\274TS\267<\236\001(=v\336\250\275\311\r\203\275(\026\306>\320\255\216<X.\200>\370\271\203\27601]\276\'y\374>T\027\031\277\241\200\034\277t\005\266=j#.\274\000\264\202>#\347Z=\253\217=\276\344\021\366;/V\361\275R|\333\276\254<8\277\034\332\265\276@hC\276\004D\312\276\273*\230\275\271q\376=\315\322\344=\017@\177\275\304RQ=F\357\341=\216u\347\273z=\266\275\265\213#\275\240\204?\276\236x\214=,^\350\274\364\261<>\215\363Q\275\225AP>-\352\253\276\305\221!<\231\347`>>\303M>\373-M?\0163~\274\005x\226\275\320]\261\275\276\214\262\274g;m=\364\n-=\261n\236\274D\tY\274\202\365\377>\\\210\257=\247\266\262>\3414\000\276r\033f<\306\263\211=%b.\276\326\023\242=8\222?\276?\rA\276\323\035\204\275\010\262C\275N\310\202\275\252J\377\275\014\311\036\276\317\370\250\275\240\303Q>\276\335\350\275\275\300\023>\355\340\007>|\221\271=\205\036\016\276\230\244\025\277\242\356\220\276\007\374\022=\353{\020\275\245\274\017\276\037\321\005\276\335G \276aM\004>9\177\263\275W\355\303\276\314\252\007\277\3374w\276\000\313\006\276\337\2750\277\371x=\276\352 \304=j\007\204=\353\3612\275\307\236B\276B\316\355=\2711!\276\267\031>\276\254\235\326\275\005\371\323\275\261\377\034\276\212\024\236\275T\037\235<)\376A\276\261G\021\276\022\334\205\276\236\262A\274\300F\010\276z\226x=\224X\200=\037\363K>z\0011>]\246\305>=\217\007\276\300\\\205=P\177\356>\324\201t>\010a!\276\232[\207:\033\006U\276\016\221\260>\3245\367\275-`\230>|\334\255\274\354b\251<w\021\t\276\245C\353\275}i\030>\317\217\231\275\353\304O>\360\260\264<\345\005\337\275\201Z;\276\346\006\006=_}*?\001U\203\274\0149\243>CeK\275\tl\025\274g\252T>6g\375\275\005\206\314\276\351\306\205\275i^\330\275\341T\260=\036\336\244=\0223\002\276\"\204\245>C\370+\276\256\010\245\276\243\235\352\276\355\006\223\274\375V7>\023\016 \276~\241\277=\250\2004\276x\377\230\273\372\240{\276w\024A=\242\215\211\275\365\263\327\274]F\366\274:\336\001>R\021\230=\016\323g\275Y\026\214\275\n\307\267=\\SP;\336\362\032\276\206~u\274\345\263\326\274)\002T\276e\262u=2Lh>\211I+\276\363\n\\\276y\270\237=\201\305\000<\257\202\254\275\317\0060\276Z\212\277=2O\335=\223\217:>\240>\r<(T\216=0K\307\2754\001\324=C\320\326\275Dd\231\2759\253\262=\2763\270\275\305\232=<\234\312\r\275\367Y\030\276Q\202\242=\207\017\205:\035\007+\276\311OL\2758\311$\275\314U+\275\204\246\252<\010Y\021\276\200\2131=\000\3258\276\207\'#\276K&\016\276\020\024\211=\262X\035\275$f\221\276\326\271a\276\345P\327\275X|\t>\353\365\252\275\362S\241\276\035\210\261\276\276]o\276*\360q=2G&\277L\227Z\275\300 \373\275\220\234\n\274{1\000=\3513O<6\002\304<\334\326\276\275c\177`\2751/\333\275t1\256\274\316|\001=\276\004\330<\200\271\352\275A\035z\276/\255\304\276L*\354\275\211yx\276\263)4\276U_\243>\317\361\374=+1\203\275\255M\343=\337\353\213=}\361/\276\252\223\023\276\245:\246>\312\205\257=\232-9\275\212\017)>\247\222I\276G\037\346><F\'>\253\034\352=\260\200`\275\216\266\202\275\333o\336\275\234\014\r\275\251S\377</sw\275V\330\324=?\234\315\275F\025\010\276\'e\332\2754\004B\276P\317\223>\225^x\276.\225\342=\300p\216\276\373\226k\276\253^i>\376[\204\276\376#\230\276a\025S\275\270\3576\276t\n\317\276\365\346\'=[\276\243;\265K}\276\021T\242<!\026!\276\267\204{\276\036\3473\274\203\255\357=B\314n\276\361\257Y\275SMr=No;\276\213\273\225\275=\016c=\247\310]<\370\n\205\2762\t\275\275\231\264$\275~\r\242=4\201-=It\312\2757\274\276\276P\224\276\275\005\032\334\276\255\205\257\275\251\374\361\275\013\227\204\276\000\25718\270+\342=\274g\t>c\353\257=\027\204o\276\007/\341\275X\245\356=\023C\002>\331\024\325\275\23273\276E`7>\266\371\225;%(L>\302\367o>G\336\230=\320\372\270=.\326\217\274\022Y\237=0\321\3119\215\367*\276\1777\330\275\233\256\000\276\351\323\301=4<^=Gq\376\275a\000P\276\007\317\003>*\273\007\276\034\273\001\276\3143 =\371#\222=\014\312\036>\310O\347\276\nz\250\276\237\031\247\275\353\341\\\276\034~\016\275i5\313\275H~\375\275\037\342\211\276\316h\307;\356\037\261\276K\321\001>\317g\212>\310DT\276\027\027\203\277C\206\313\2744\300\334=\242\347\310\275\271\337c\276\375\347\003\275\214\221\207\275Y\345\240\275\033\257\035\276\327\211)\276}\201\214<yT\r\276\321j\236=o\276\277\276+m\004\275,\005\221\276\031\262\265;[\327<\276\301\361\206\276\216\333\r\275Y%\257>\247=\314\275x\353\035\276\242v\336=sZ\210\275c\343\r\276\235\370\240\276\342\2612\276a\006\327>\314\177G>V\256\372=g\315\315>\031{\201>\271\2222\276>\205[\276\032\322\000>\303\3259\275\240\301\310\274\351\261\251\276\307/\224\275p\345e\276n\374\001>\361\337\314=\235m\003\276\275+=\275O\177\243\276\366O\360\275R\302-\274\373T\223\276k\366,\276n5\332\276j\326-\273\201`\371\276\231\2221=H\203o=\366\352\030>+\224\333\274/\364K\275fOW\276\007l\035\275\007\323\367\276\030A\201\272\3505\261\275\022]\236>\245\207\274\276\233\002\363\275+\326\010>\313\032.\276\362\237I\276\024\270d=\331\317\230\274)\312?\275>0\274<\036*\306=\326r\311<\235\342\013\276\001\032\034\276t3j\2765\030\213\276\010\241&=ai\003>Y\316M\276\006\007+\276\t\"\031>~?\232\276&\223\257=\232Z\213=\372\254\305<,d\254=\312g=\275\024ns=\021\350\264\275d\372\336\275\366C\022?\331\200\377\275\274\250\035\275[\034\360\275\355\3405\276\211.\313=P\003\315\275G\204\220\275+}Z=\326?\'\276B\240\005\276`*3=7\rE;\2446\242=3Q\246\275\310\276\022\276\225-\313\274\273^\370\275s \210\276\224|\313\274\367o\227=\\\263\237\275R\277\212\2755\016!\2771\021\260=\036|\013\275\353\006\013>\276\275A=\2331\261=\034\200\303=\334v\021\276\2072\300\276{\025\270>\261\205\375\275\027\247\212\273\201L\022\277tk\227<\212\216\270=\032Q6\275\025&\303<\250Hi=\374\025\242=\315\331\206\276\343\300c=\315=\260=\244\276$\276\254$&\274\305Bh<\216dC\276\013\0236\276\207\0321\276^\250\235=\275\216%<\214\266\244\275X\231\001?\342\030\235\275\2336\306\275u\014\373<\337\321\217=\2003\356\275\333\3529\275\220T\014=\373\223s\275\347\254-\2757A\233>\007P\274=\343\030\332>T\2622=k#\020>(1\350\274\200\037/\276\352\271\225=\215*\006\276\206h\342\2752\361\312\275\352\365\021\276\366A\313\275\3773:=\312\221J\276\232\004\016=\252\363q>\240WF\276\340~\220>\347n\352\275\n\033\251\274\037\372\316=5R\373\2734M\"\277\272!\217<\273\251\251;K\205\253=\0028m=\024\303\013\276\266\014\361=\307\022\273<v\'\323\276\216pY=\360\234.\275E\221m=\367Z@\276\254}\245=\271\202\010>\375\200\226=\347\363\236\275\232w.\275`Ay\275\377\364\215\275\230\351\215<)U\017\2766\244\257\275nyy\273}\251\000\276P\277j>I\215\t\276\336E\233\275\3510]\276\360\322\030\276\014l\274=@i\314=3\321\331\276\003\224\031<\3347\257=\242\017\212\276TK<=H!\362\275\226\265\017>\310\2407\276\207\230H\275d\366\002?\021\373\215\2745\'O\275\333\216\246\276\007\\\005\275&\017\313<\274v==\227\313\017\275\306;\032\276{\343\302=7\r\306\274\215C\t\276(!\004<U\202\206\275~\327.\276P?\217\275>s\030\276)\247\033=\263\007\007\276\222Z\303=\365!5<\3053[\276M\365\373\275\n\304\344\276\013<\320=Y\321\357\274x\320K\276=&\000\276\303 \033\276(XV=_\244\\=\212S!\276\257+\005>(^\317\275\n\221Z=\214\3311\277\207\223]=\367\0328\276h\277\024\276\334\204[\2765\357o\275eHA\275\006\305\265\275\210\230\006=\0167{\275\246\253\264<\244GP<\200K0\276\"m\241\274\"[-\274(n7\274z\240\234\276\020\254R\275P\370\254=\031\322O>\340\316\031<\367\250\212=B.\244\275;\023\334\274\034%I=\364\3025\276U\323\265:3\355u=\003\375\363\275U\'\234=\333\325\263\276\272\004m>\257w\276=\265\302^\275\013u\273\275\001\365O=\227L\323\275\017\316\324\273\023*\234;y\345M<\371G\227\274j\247\364=f\263&=I\305\177\275\t4\367\275\2739\337>\365\276\243<]T?>\340{\240\274~wR\276\000\'\002?\0149\266\275;\246\352\2766\033*\276>\220M\274\306\263\210=\367\0267=U\227\224=\333u*<\246/\334\275(\007$\277\254\225\341:\375\020\271\276\t\243\036\276\3302\021\277\343_\360\275\237\255\371\274\304K\234<s\036\236\275\322\"\205\275\231\004\004\274\251\206s\275\245\320\002\276\201\265\026=&K\023\276\370\tC\276\226:\231=\3320}>?r\000\276\n\376\263\274)\250\250\275\257\213\027\276\006C\030>\024\265\037\276\216p\354>6P\322=F\010\246=#z\375=\342\353\002\276\013DC\276u\2072\274\210!\347<\334T\255\275bO[>R\341\241\275w\310\236\275\256x\223\276\223\377\367=\n y\275\323l\351=\253\364\036=\324/\320\275\022\215Z=*\234\300\275\370:(;[/\315=@^v=3\344\316\275\016\333\334\2751\024\r\275;\261\357=\025\021\000\274\021\302\305=\365\tx\273\260\376\323\2756.\240\276\260\277\236\276\245\304\301\275A\262\n<`\371\203\276w\267\241\275)\265\007=\033UR\275\344\304\246=\246E\243\276{\307\332=Cy\204;O@\251\275\353\354O\277\337\021\225=?Y\356=\332\3244\276\215R\215\274\304\345\220\275\2440\031=\020\372t\276sZ\244=\237\333:\276\221\3353\274M\177,=bm\204=\271\261\326=vM\217\276*\017\326<\305h!\276\247\004\362\274\2677\256=\240\263m\274\033y\023\276\303,#\276Q\362\"\276\225\361\305\274\202\272\235\274\364g\305;\024d\240\275\335\014\254=\233\'U\276Rb\t\2764\207\222\276J\275T\276}\327\241\275\035\311\014\275K\371/\276-\004\036\276\376\032\362\275\333z\t\276\0303\266\275\267\272\307<\311\331\206<O\311\307\2759K\305\275w\313\034=\276_e\276\225W[>\030\365\201\274xX\225>\374\210K\276\036\205*\276\322\315,>\326\332A\276z\2420\277E2t\274\031\217\357=\nT\210=$\324>=\265\307\006\276\241\027\271=\301S\027<w\375\"\277\375\301\021\277\356\313\014\275\016\317\235\276~\371\014\277`\022u\273\"\231\322=H-\010\276\217\017\370\275`\003|\275\262\024\346\2754\314_\276\316\3472\2763\215|\275C\340\200=\231\037P\276\250\241\361\274\177w\203>o\001A<W\006\322<\331/=\276\226\230^\276\210\233W\275F\250A>/ax>\020q\341<\2358\000>\314.\321\275\0275G\276_\203?\276\250\226\266=\367U\377\275\tv\247\275\314\341\273\273\300\217\250\275\222g\276=\201\361\242\27591\302\275\215\016\"<\207\320\"=\035\370A\275\r\326\230\275\336\304\202=\203\362V\274\211\371\003\276\344\337f=\343\302#\273\265\363C\274\341B\267\275\004%\001\275\t\324\204\275\215\271\331\275\277\330M\274\'\372(\275\"\303\232\275\353)\270\276e\346\013\277\336!9\275\332n[\275\374\264\236\275\271I\213<7\265F\275\301\355X\274\301\244\206\273\203\230\225\276\003~\002\277\307\307\010\2762\266m=P\177+\277\235\020\333\273:\342\316\275_\035\363\275?\230\233\275\024\355\270\274\300U\337=\201\231\232\275 7\324\274\016\350(\276&\305\371;\326\355T\276S\030\307=\336s\240\275\216\373\323\272\205\333\001\276\254M\224\275\340\253\316\275\026\334\237\276Y\313\207\276\300\\\010>\010\235\324=\240K$\276|/,>k\301\"\276\n\007\235=,a\316=\010.5\276\213e$\275E\333L\276L\032\257\276\200s5>\274SM\276\323_\362\274\361m\004\276W(\374\275n\203+\276\306N\331\275\341oi\275\25172\275\354\265|\276~\027j\274\271A\234\275B\322\022\276Z\2066\276\0072\262>\252)6\274\362\230\313>k\347\235\275)\016\020\276MT&=udB\276\274w\376\276p`<\275\233\337\337\274\302\311\014>>\345J\275\354u\332\274\200\347\323<j\302\261=\030\020\245\276\221\220\'\277`\233\013\276\351E(=\362\315\244\276M\307!\276\2362\006\276\004\024\331=\0310\"=\r\035\211\275\353\230@\276\367\332Y\275\360\357\333=W\017\203\275@m9\276\376\347U\276$m-\276\200\003\033>\320\241\207\275?\333\231>\320\344\250\276\365c\206\276\020\037E=@}\235>\315\026b?\000\026\277=\274\001\376\275Uw\251=>\206K\273\266\214\024\276\023\200>>\001C\211\273\031#\362=\214\225\235>F\203S=\325\276\000?C\314\200\275\356\271\000\276\312\264\320\275\207p\352\274\270\233\330\274\252\214\216\274\'\214\317=\020\325\330=\361\n\332= \254\231\275\214\215\313=\325\346>=\367\325W=\341w&=\036\374\254=\272\261\265\274fU\237={\354&\276\204/\001>y<\232\2767+u\276^\016\341=\214\003/<\226\024->~\343b\276\274\343:\276:\254\355=b\357u=\242\035p\276=\217\023\277\347\322V\276I\240\355\275)\275\r\2777\332>\275\362\013U=\300\3676\276\007\030H\276\025d\342<\023\306\316=\315\374y\276\3254\022\276\032\375\212\275,\n<\276{\203<\275`u\303\275B7\350=iYx\274_\254\256\275\212j\017\275\317T-\276\325n\223\276}\nF>\375*L=9 \242>\305\260 \275i-%?!\222\223\275]\315\215\275\035\310\316>\340\363\361=\322\220A\275\241\264\204\276*\236\207\276\201\325\312>\330&\220<+\270\303\274\275X\356\275\013|!;\t\030\207\276\n\343\017\276QI\227=\037\265b\273w{\020>\331\314\211\275\364\n\306;f%\024\273\275\267\001=\331\236\314>\203\014O\276\341\017\007?\243\363\223\276ah\034\2769\305\201=\203e9\275\230\277%\276\211\321Z=\240.\245=\232\377%\275\367\361S\276\202\257\035\275\226\313\203=,\337 \276j7\330\276\320-4\277\204Qm\276?\363\003>Z\'P\276\344\340\200\275\3232\260\275U\243%\276\207\222\213\275\375\267|\275ne\321=O\'C\275z\016\035\276\256\355 \275\0104\204=\346\t.=\252G\270\275\240\201\035>Z8\211\276`\207t=\372\007\037\276\242\266f<{\024\034=\241\301\017\276\251\007\022\274k\224\002\276\264\212\352\275}\361\277\275V?\302<\001\013\277\2757m =\374\363+\276w\217\352\275\207\t\306>I2\365\274i\234\\\276{/.\276\037\026\274\275\325\357M>\3475=\276v\361\257\275j\304\330=p\211\223\275#\034\016>\344\356\007\276q\036\005\276\360\204\237<\322\006k<\206\337\017\275\005\023\324=\363\336\315\275\030\353E\276\363&(\273\317\233H\275m\000F\275w\200\315\275O\351\272\276\247\t\t\2741\301\332\274\271\332b\276\036\257\241\275\243B\343\275y\327!\276\272\261]\275(SA\276./\330\276\306\201\343\275\262\032@<q\274\344\276\\\263\001\276a\273\010\276\337\277[\275\320\204w\276Y\306\353\274\337\300C\276e\270\207\276N\370;\276\372\356.\276A?\231=\237!H\276\225S\320=\274\203S=l\003\365\275A\356\000\276\205\251\277\275j\374\212\276\235\206\243<\344\247\323>=\232Y=`5\310=\007\257\257<D\304)>\"\223\243<\272O\004>f\224E>\267\330\006>\315P\256\275\363\245e\276\276\214\036\276\022\344\371>\374\376\276=%C2=(\310\266<+q\252<\322~\270\274\035b2=\"G\006\274\311\240Y<&\221\307\2755=\201\275\315\333\260<\375\231\274\275M\037\n\276/\024\213>`\204\007=\350\2322>H\303%\276\321\262S\276Hz\266=\321\020\367\275\312`\344<gjG\275\341\307\036\276#\306\261\276x\021\366;\037Z\377\275x\253\001\276\265E\"\276m\347\005\277Na\362\276\201\2350\276Q\177)>\002\313@=}4\340<a\217\251\275\032l\016\276\262O9\276\'\256/\276l\314z={I]\273\244\316v\273\362\376\033\275-$\254=\314\271\367\275\025\261\363;\r\334{\276\204H\356\274O4\261\276d\316\242\276\025\215\320\275\253\332\364\275\347#S\276p\303d\2762\257\273\275\025\220\023>\263\253Z\276LT\264=\253\313\313<\267\2475>\205r\026\276\345t\001\276\357\260\005?o\245(\276\354\372k>9\207a>\2028\321=\241\257\027>/A\354<\361Ep\275\022p\327\275:\324\214\275\210^\301\275\227\273\203\274.\276\t>~\357\202\274\212`\270\275b\t\036\276\374L_\276\202\350\274\274\302\314&\276\345Z\246\275~-\035=\363\243\253=,\365\363\276\346\241\030\2775mr\276(\264\027\276\242\337\366=\330\010\343\274\203B<=\314V\241\276Y\336,\275\232e\352\276<\200\005\276\3310\250\275\367m\330=\236\266\235\277o\363\200\276\275N\243=\t\337\211\275\336\260\363\275\314\351\024\276\344X\221=0P7\276J\367\215;\233\301\353\275\303H\001\276\3561+<A\342\216\275\241G\373\276\262\315\217\275\226\261\215\276R\004\022\276^\273p=\243&\252\276\316\254\356<\351\250\255>\263+\271\276b\036\324\275\220\224W><\2379\275$Y\315<5\331 \276\233\217;\276\205\241\274=,o\206>\307\377-\275\352\274\332>\000\254\233>\247X1\276\202\027-\276\244\006_=.\204$>\317\377\364\274\205\272!\276\004\177\005\276.\213\241\274\333\t\371=\350\300\344=\2633`\275D\275b\276\261<\021\276\211>\332\2759\311\025\276\215h\211\275=\013\214\276\367\351\205\276\'\326\031\276\312+[\277^\305e\276;\352\214\275\266\206\364<,+\246\274\372\257\222=R\376\201\276\026\375!\275\320\3479\277&Ej\276\314\337/\275\277\324i>P\321\270\276\311\356\244\275\357\250\265\275\010\250\240\275h*\265=\275m\366\275\030\241x\276l\n\020\276\035\322\000\275\245\207Z=\210FM\276\035\026W\276&.\363\275P@\265\276?\001\223\276\2310\213\276\022\274\262\275\274]\235\275\202E\274\276\020\376k=\032o)\275\235\\|<\353.7\276\247\370\270\2756N\321=o0\303=\261\261\201\276\264\261\347=w\276\213=\311\035\336>\277\254,\275\207\361\346\274\276\213\373=\225\237\007\276/\302\004>\025s\235\2745\r\374\272\033E\254\275E\265\243\275\342\321A\276\373%\330\275\374R\330\275\357\217\315\275\005Z\270<I\234\236=\2729\364\275x\246\323\275\336\021\245\274 \242\245\275\315\370\023\274\035\336\005\276\364\236\230\276\036\261\023\277G\241\200\276\267B\333\275\027_$>\270\330l=rh\311=\355\371\257\275\\\031\177\275h\231\265\276\256\221\037>2=\272\276Rw7>\337*J\277\367l&\276\313\036I=\332t\306=\270cN\276-\226;\276\351\225#\276=b\r\276R\037\200\275\320I\312\274\266$\006\276a!K\276\227\3376\276.9\271\276\263\016\212;y\323p\276\353\010~\276\3269\024\276\220\365\246\276\232;\300>\323\316\021\276\265\235\007=q+ \276\342Z\275>\236\371\237\274\037R\234\274\231\212\363=\333\246\260=\366\242\211\275A{\226>\214S\201\276\366^\037?\237\324\237=\020\000/=(\310\r\276\234\203\213\275[-p\275\302H\376=x2k\275\377\177C\276\261h\257\274\235l\253\275\315\004\242=\252^)\276b\276G\276\302\276A>\255\255+=-\311\217>q\233\206=\332\373\224\275\0001\247=\244\000\210\272k5+\277\363\324\251=\235\340#\276\216\241\342=\344\314\325\275ufF\276\264\356:\275.\226\023\276,\3653\277\340^\206\274b\274\214\276\020U\227>\021j\215\2763\317k;\r\365-\276QEC<~\240==)\321\213\275\361\217\252\275\357\362\254\276\276\010\222=&\222\226\275\312\377\004\276\223\033\301=\016lQ\276\275\232U\276\206\375\241\275\326\027G=\2018\313\275$\277|\276S\320\336=\227A\261=x\022\240\276O\204\304=\016a\227\275\\\272\215\276\235\326\177\275,\227c\275%.c= \365\236\275y:$\275\'\366\265=\325\032\036\276,n\002>n\344%=\274Yq\274\366\277\347\275\317\t\025\275\235$\013\275\020L1<\303[\371=\001\216\225<O3\272\275\217\365\350\275S\352~\27595\322\275i\213\027\276j\274\001\276S\nc\274\221VF\276i{\357\274\261t\315\275\323\2177\275\026\317\272<\377\357 \277\r\221\375\275b\004J\276\000\272\r\275\032\004\033\276\314^4:\1771@\275\256\036&\276\306x\200\276Br\262>,M\t\276`9\000>&\215\357\276\207\374\247=\"\306\323<a2\002\276\027\203f\276\245\262\322=K\034\372\274A\373\201\276m{;\275a#<\276\200\rY\276\364\341\260=\260\014\037<\\~\216\276\334\252\231\2750\332\317\275z\377\240\276\341\301p\276\025\244\201\274\374\204\016?\212\021\036=\033t\007>\227\224\332\274\276\352\242\274\035\237\347=E\205\002>\r\267\311>\373\273A>\0142z\276\303\376\005?;|\263\276\033~+?\220\034\356<H(\221;a\037\177\276\350@\030\276\212\375\357\275\023\347\244\275W\361\302=\207\341\202\275\003\212\034>\334b\034\276\010z\032\275\\\240\023=\001\013\331<$\375\232>\370\253\353\275a\313==\017\246\367\275=\356M\275Y\307\t?1\306~=\035\300\274\276\016\213\204\275\327\344\000>\027P\333<\346\347\224<\244m9\276\267\276!>\237]C<eX\030\277\333\232\n\275\252\020\211\276}\220\227>2\312\306\276\224-\344=Ge\302\275\226i\214=\234\235#\276\313\r\230\275\302\0162\275\0079\233\276\261\027 \276\313\221\257=!\370\257\275Y\334\256=\030\000\256;\326\235<<m\234\305\275\363Z\301=\304{4\276\277\032\205\275\355\\ >\250\341\n\276k\217\230>\375\365\024=8I\357=&\343 \275d\324\023<\304\306\005=\323bs\275\006%\207\275\300#\246\275\237 b>\315Im\275\002\235k=8yZ\275\030\'\320\275 \323\016>\023\002\300\275\277\351|\275\367}\351\275M;!\276^\324\255\275]\352B\275\366:\367=\375\214\267=\214\"5=\355\246\347\275p\013\020\275\363\362\314=\022\023M\276\035\230\376<fq\022\276\326<\211\276\256\326\222=\372+=\277l\334\255\274\\\311\025\275y\306\225\276\201\246:\275w\212\343:3H\335\275\252\'\370=\3535M\276`c?>\013\217C\276\304&\251\274\217\234\014\277`\340\2079\305?\274\274U\352\341\272\361H\'\276&{\207\274\306\024\r\2763\350\037\276\257\305\023\276{\026J\275\274\363\301=IU\217\275\306x\210=\351\250\230\276\243\321`\276\320<\207\276\274\270\014\276\034MF<\344\221\267\275[\201\374>\373S\n\276\216B%=\373H\005=rrF<A\353\355=B\2764=Pi\357=\022\225\375=\257\322\034=\314X\365=\346\253l\276\272/\002?Q\262\266=u\345\366=\027\250!\276\316\031\256\275\266\236\'\275\276\301\200=(A\273<\313\303!\276h\215\233=\371\270\375\274Gx\004\2766\360\352=BF\362\275\235\004:>\267\216\207\273\250\326\\>\nO|\276~\272#\276\242\212\341=?\312p=\353 \353\276\350N:<\207\t\376=\273[\341=WsM\276\3265\032\275\3737_>\025\223f\275\301\353\016\2776\204\230\276\036.\030\276\373+\271>\312\351t\276\3441\337;\333\256\013\275\r\2206=]\004\233\275\003=\371\275\340\rD\274~\265;\276\301\\\002>\310\307\225\2756U>\276\262\343\316\273\364A\251=\327\332L\274\021\271\220\276\210\217\324=3v\353\275\355\364N\276\206@\007>\246\347\025>T\3561\276\377\211\232\275<\364\275\275(\345\010>h\027:\27600\372\275\344\323\225\273\007ll=\342\004\207\275L\323\247\276\006/A=Q\275)<jk9<\000&\245\275fl:>\035\244\245\275\031\250-\275(\215\236=\320\200\353\275=#\021\274\336\362\247\274\210dA;\252Z\246<W\334\303\275Oz\237\275\027\341p=/\372\027\275\341Y\030\275\206l\036\276h\371;=j\342\274\275\347\250\302=U\022\027\276G!\225\274v\335\005\276W\014\233\276\202\332\300<\227\020\273=\027h\324=\335{\214=\242qT\276\201\352\267\275\317m\260\274\240\356\267\275\364\327\252\2764\263T\276\365\275\311\274\001(4\276s[\343\275q\252\211=Y6I\276;\004\244\276\312\302\266\275\315b\304<\371\337\177=j\212\305=,\252\n\276jW\025\276`\235N\276ZL\274\276[Y_\276d\356,\275h)i\276\n\343N>\314\003\343\274R\214\021>g\315\314\275\267\321\267=\363\264\374\275\203\372o=\313\265\300>\365\341\371=*\204^\276F\3234\275\276;\365\275!\201\r?X\203\311=yj\">\227!l\276\333.\300=E\361\024\275\010m\006>h\225\336\275\003{b\276\034\017G\276\341\014\212\273\352\005\372=GpQ\275B?\322\275t\223\223>v\342\026\274jN\213>\227\004^\275\001\273_\275\334\274\204\276\272A\200>@3\262\276\273\257\317\274\223\203v\274\262\005\024>\257E@\276\027Y \276?r\335>\300\236\374\275\007D0\277\366{#\277\315\200\177\275\351\020)>\226\353\317\276\236\016)>\352\237\261=#\233\020\2767\357\354\273N\353\347\275\004ji\275\303\212U\276I\361\261\275\347\327r=7\016r\275\356n\217\275\242\335\004\276\3721;>\302\005\016\275\251\026\035>cu\376\275\253\376!\275.\313\025\2769\320\233>GK\213>t\3426\275\226\0224=\334\255\"=\177f\'\276z,)\276\305\331\343=\252\205V\274@(\365\275\331\314\272\276_\270\367\275\361\310\353>\n^\210\276\257\206\371\275\230,\334<Yf\037\275\227\243\007\275\236I\345;\263\316K\275\002t-\276\344F$\276\323\321\005>\207\373\016\276\221\323\261<\037*\'=\231X\335<\271\303\242<\225\366\021\276\270\363\334\275\337\322\027\276\260p\247>\373d\023\276\0349\244\276\004\314B\275K<\371\275K\2765\276\353\025\004\275K\371\356<y\303\310<c\337\312\275\304\321\327\276\247\032\265\276\260\311\023\276N\200u\276\303\007\r\277@7\262\275M\271\211\274\250\343\247\275HrD\275F\233\334=\031\335\317\275\024\354\032\276fHL=o\350X\274\244\307:=\250\323\306\275\026\010\346\275\t\323h;\244\375\317\275r\316\244\276\366\247\242\276S<\203\276\034\006e=\320\310\002?%\372\210\276\305e2>\2600\024\276\002\2639?\360\204\302=`f`\2749>\"?\243V\214=\010\220\230\276\266\373\343\276\177\341\232\276\361-7?c\245*\276\265\374V=\326H\243\275\301\010\345\275OV\361\275-\232\017=\353\235\006=\340B\214\275\274\003\t==\216\245\274\331C\030\276\026&A;\026\306\010\276\344\032\317>\025\333;\276D\355\t?\272\000\032\2769O\210<\266\253K>\314\316\223>\253\035\322\2765w\021\276\376\235A\276\030,\000=\272\031\335\275\341\3773\276r\213\323=\313f4\276\342Q:\277b\' \277\261\303]=)md>\301\303\036\276\023\214\373\275\372\n$\275\037\311\371\275\344\361\202\276\360\264\n\276\334\3731\276\030\254\227\276a\224\302\275\266\312\021\276*\376\034\276+\353N=\033\2471\276\330\363\226=\341\303v\275\201;\025\276T\036\215\276\266q\005\276\320>\230>&\317)\276u\237g\275\327\253\370\275j\234\255\274\037\010\264\275\362G\332=\037 \262\275\n\377\246=\213*\037\276\244W\346\274\372~y\275\341\022\277<\363\201+\272~\315s\276\271\207D<\207\230\017>\016\257\333\275P9\357\273\373W\252\275p\215:\276\242I\022\274/\254\345\274>\202\030<!\321\277\274w\354\266<\032\334\000\276\236\356\004\276\367\375\213<\246\023\263\275\341y\036=l%~;\002\240\373\275\263\317\n=\325D\210\276\341 \221\275\213\036,\270J\302l\276\365g(\276\260\300\235=\343\020p\276P\325*\276%!\275\2763_&\277\252\345\014\276{\010\371\275\033\2035\277<u\217\275\002%\005\276\256\324\001\276Rn\302\274S?1\2760\323X\276\002\221\027\276\203\211\213=\355\0003\275\2647\214=\225\331\022\276\275\257\016\276\010\2528>\r\351\273\275\337\023\211\276\236\252/\275\325U\330\275V\350M>2gw>7\257(>JC%\276?wv\275\323\267\246=?\023\346\275\310\236\005\276.\2152=L#S=\3518\200\275\327\250\343\275\340u\370\274\022\204\301=\003\303\350=2\360\322\274[\374\262<\246\034\020\276\373\3060\275\007\333\274\275\226\024A;}\210K=\364\211\006\276\034$\203=\250 \345\275\241\312\230\274\274\250\017\276\214\360D>,,\365\275\232/|=\t~\270\275vX!<SA\247>\013\213\326\275U\0170\275Y\002\177\276,\243A\275\216\023\017\277\325Rj\276(T\034\275\231\254&\2774\270\356\273\030\021,\277\304O*\277*\025\036=\3007\261\275K.\272\276\222\034\037\276k\020\025\272\324E#=>(\313\275\367\200\010=u?\331\275\004\223y\275\223\035\301\275\207\232\362\275Gr\216=\231\234\276=\276UM=\334hD\276\332\010q\276\034\230\260\276\355\344\241\276\314\006\365\275uy\261>\315\tF=\267E\263=\312\036U\275\251\"\337;\331\334\033\276\304u\213\274\216=\216=\311\270<>j\254<\276#yS\274\211\361r>K\205\263=X\200\261\274P\016\005\276\027\257\004\276\345ii\275y\212>\276tK\325\275\216h\013\276\351\306\335\275\351pj=\376\250\227<P\361\242=\237d\341\274\232@\000\276/\253\032>=\324\245\275\257\013\004\276c~\254\274\233dx=k\241\000\2750\0279\275\207\013\271\276+z\005\277\315\232\363\275#sQ\274\204\217{>\224\366,\276\'\275\302\275\000\035\200\276\272UT\276g\245f\275\2504p\276{\236:\272\002A\265=P\356\257\277\2015R\275\027\020\362\275\222\3560\275m\261\254\274A\225Z\275\005zB\2763\260\256\274\215\365\341<\242\223\271\275@\361\r\2754\n\'\276<h\253=N\211g\276\341\310u\276\372)\214\275\260(\355\275\000\'\270=\322\276v\276y\266T\276\0341\006?\307\206\331\276\211i\222\276?I\213\276V\236\001\276U|\353=\354ug\277\307`\n\277\351\364\257>\250\025\305>\222\034\304\275\216aP==\314%?\005D\n\277D\2064\275\266\261\251=\272\240\241\275\335\263\272=C7\300\276\312\360\213\274\233>\223\276\204\213\265;\022b\232\275?\266\020\276(\017\022\276B\236!\277\r\240\320\2741_\032\277\273\230D\276\205\256M\276\235\022\202\277\036\251\233\276\342\317!\277\307\224\307\276\230|q;\336\224\231\275\341!\203<\270/\t\276\240\227-\277\366\020\007\275\313v\334\276\226\000B\276\317g\205\276\021\313\352=M\216h\276\241(r\276\274\025<\275{!\024\276\007\242E\276\227\330\277\275\246\333\023\276e\007\342<\267\r#\276\031\315\334\275u=O<uU\355\275=([\276u/m\277\017{\211\273Nw\241\276\207\034\271\275\336\320{\274\232]\201\277\332\301\276<\276B,=\177\324\377\275Ww\270\275\200-t\276\357s\306\275\306\2040\276\"\202X\275\352\265\030=Sa\267=\010)r>\213\357\237=[\363>\276\020;\242\276\301Z\365\275\374x\263\275\353\326!\276\232\033\035:>\245`\274\351E\230=\234w\233\275A\321i\275z\377\242<\324 \027\276\377!\213=L\203\004\276iY&\276\244\316\326=&\330\262\274\260\357o=>\374\367=)\217\017\276\222g\275\276O.\n\277\257\270\016\276V\323\362\275\274\266P>\317\376\346\274\261K\340=R\333y\276R\264\360<\373\374\237\276\367um\276\364\203>\274\227\320\013>\207V\235\277\254\275\374\275\010\357\316\275o\2523\276\227Un\275\303D\231\275U\0302\276m\\7\276W\253\001\276\321W$\276.\331\315\275\3236\226=\000\273\273=K\277\350\276-\236F\276\034\204\215\276\235\027\024=\210\256\001\275\262u\327\276@\363P\272\204\331\302\275c\367\211\276\210\253\037\276\300H\314=Y\013\305=\227\0058\276_c\313\276\265\201+\276%\331\320\275\366\363\315=\034\356\225\275I\210\340=\3257\022>C\227\313\276\014\365B\276\232\3232\276\352N\375\275\244\310\352<\241\250O\276e\032\343<F\3773\276\025>J\275\023\0020\276\246\222\265\2749\234\236\275 \250\320\276L*\332\275\345D\330\275\031\007\277=F\234|\276\010\321\353\276\332\241,=\005R;\277\230\205\017=\334\010\355\275p\010=\275\225\312\236=\026\327\026\276\262\217y\276\274\370\243=\241\274\016\277\350\2653<\273(\261\276\244r\241>\326\034\257\276o\216\035\276\204\240\372\275p\216\343\275!\001\013\276\033\\;\275f~N\276\200)5\276\0179F\275i\366\242\275\263\334\344\275\201dB\275m\013\310=\\H\333\276\004\234k\276\254\277W\276\376\217\333\275=\312\241\275g\307\274\276}\031E\276QF\326>\377\036\016\276w\024\005\276\202lb\276S\322\005>\021H\304<\263\370\260=\352\373,=W\341\321\273\264\366\271>\253\036\347\275iF\t=\352\251=>Cq3\275\273;I=\357Q\274=N\374\010=%\343\345\275\360n\t\276\036\235m\275\375\362\352\275Yw\034=\322\372X\273\366U\347=\237\273\002\276\022\313\327\275,\035\"=\231\210\274=\340\210\030\276\343\342\270<\332\212\210\276\312\310G\276\001\362C\277\221z\"<\320\207\013\275\240&S\275\271!N\2764$\217<\333\010\021<\206pE<\2235Z\276\226\306\026>URL=\233;\001<\250:\006\277FB\374\274\331\300:=\316z\306\275\324\320\241<\021\325\347\275\330U\271\275F\272\207\276\007ef\275\thC;\rK0\275\231u\344\275\306\303\266\275,\277\301\276R3\201\2768\354\371\275\\\307a\276\031\321\342\275a\240&\276[\027\212>|\341g\275#\376\034\276(B\307\275\361l\033>&T\374\275\362\372\010>-\006\363<\304\320 \276\350l!\276:I7>\t\360\203\275\244\253\302>\027\337/>\327v\005\276\"K\027\273\307\277@\275\320\024\313\275nI;=\272\'\027\276D{Y\276\004\362\211=\244.6=\22644\276\235\334\350=\355j\367\275\230$\252\275v\260\212\276D\315Y>2\277\255\276\323\033\027=\\\ta<\376|{>\310c\033\277i#_=\364\t\005\276\277\037\010=%\331\201=\205\021:\276\231\227\225=\231\337\241=\332\3402\277\255\330e>\300\220\024\275l~\220>~\006-\276X\227\221=h\\\237\275t\245f\275\3470\317\275\351TE\275g\010\177\275\363h\005\275qP\256=k\364\220=\321\342\250\275\314x\204=U\232h\275\007\006,\276\240\250 \276$\266\351\275\337\030\376\275\r\257\202\276\031\245\241\275\347\327\200=\241j/\275Q\320\201=$d\235<\016\242\t\276\301\237\033:b\024\222\275\331R\247<\217\344\332=\243\027z\276hK\244\2757E\273\275-&,\275\n\346D>\257,\020\275\240\000`={\366.\2767K\336\275\230\254G\275v\007!\276p\031\005\2769\207\366\275\225\212\321\275\357d\374\271\327$\230<~\3318<L\215\346<t\267\210\275\200\200\265<\305_*\275KJ\331\275\222\241\230\274\223\236\210\274\362\201(\277p\003\023>\023\343\007;Ybf\276\023\2276\276\034A\356;\221\303\340<\246\177\017\275\240\364J\276w\227N>\323\331@\276\034\272\024\275}-\321\276\206\315\353\275\037;\253<H\2518\276\263\307\n\276V\326\267\275>\007\242\275\327\361\207\2767\241\343=\226\205$\276\311&\210\275wH\251=.\251[:\236F\024\277\225i\265\274+\236\212\276\217\317\005\276\251`\002\276~\251y\275 \003\316>Tl\003\276\3040s<\n\253\032\274\277\325\225>\005\360\211\275IG\013>\332\336L>\306\3422<\356|\201\276Y\224\357=\035\242\233\276\221\030\004?\036\340U\275\362\013\032\276\213d\266\275\301\213\030\276{Q\351\275\262\272\006>\232\321\206\275\260\253\272\275\023\000\205\275\022]m\275|`\215=Z\324w=\\\274\025=\211\242H>I\357W\276\265Xp>\331:[\276\036$\340\275%\003\223>\356,\262>X\023\205\276\224!\213=\231\030\035\276a\325\003\275\360A\365:8\251\274=B\332\361=\033\301\016\276MG\373\276{\376m\276\230\222\225\275&\022\215>\345\302\003\276\256|\354\275Pd\332<bjK\276\362\322\211<}4E\275q\326>=f\027\212\276\350\375\260<\300\301\255\275\366\205\003\272\327mz\274\255\252\371\275]\304e=\026\344\035\276\256F@\276\236]!\276\r\274*\276b\320\220=\332\244`=\310U3>+\267\321=\032\243S\276\366\020\364\275\260\031\005>\215\300\206\274L\261\252\275_\213\302=\356\367\336\273\333\032\277=\3149\022>\346\340*\276)\037\311=t\240\003\275]\216\250\275\204E(;\364\325\006\276\032\006\217\275\331\214\020\276\271\200\032=5\252\245=qN\222;X\314\212\273O\013\016\275d\376\305=\337\r\232\274\r#\244=\221\243\367\274\205\365\246\275\263;\036\276\\\006\023\274d\311\256\275\266^\r\276A\353%\275\205/J=\314\320\321\275\374\254\230\275\362\034\247=\246\341\037\276f\022\222<\333Y\361\275F\254\210<O%\277\2730\376\023\276\245\236\001\277\200\252\245=\207\017\004>\223\306\017\276)/b=9\226=\276P\342?\276\272\266\250\275\237\214\260\275Lp\225\275\204\350\252=\303\031\275<\354L\236=\205,\231\275\363\216\225\276\351v\360\276\013\306E\276\276\265I\2760\321u>hL\013?vo \275\370&L\275\002\273<\276\004\260\262>\337+\002\275`V\216\274Z4\376=\276\2642\276\366\321\013\276\000\354s=\224\347\227\276\366\"\016?\275jg=T\'\341\275\377P\332\275\256\341\202=\014\204\266\275\207&\010=\360[k\276\277\376\324\275%\032\233\2757w\014\276\344\177\264=\241<\023\276J\336\264\2753\310\316=\225K{\275\220_\321;\320\022\230\276\010\223\256<\005 \337>\241CF>\344!L\276\n\'\350=\220\\\t\276\354K\006\276\2333\233\275\022;\256\275\020yX>\224\rH\274A\220!\277X\211\000\277$G\203\275\251\361p>\221p\227\2761,